TRT-100100-EntropyCalibration2
latent: 3cde4d45
up.3.block.2.conv2.bias_output: 3affdf28
up.3.block.2.nin_shortcut.bias: 3affdf28
up.3.block.2.conv1.bias_output: 3b3de3f9
up.3.block.2.temb_proj.bias: 3b3de3f9
up.3.block.1.conv2.bias_output: 3b029f16
up.3.block.1.nin_shortcut.bias: 3b029f16
up.3.block.1.conv1.bias_output: 3b13ae5f
up.3.block.1.temb_proj.bias: 3b13ae5f
up.3.block.0.conv2.bias_output: 3aa43a93
up.3.block.0.nin_shortcut.bias: 3aa43a93
up.3.block.0.conv1.bias_output: 3ab0d687
up.3.block.0.temb_proj.bias: 3ab0d687
up.2.block.2.conv2.bias_output: 3b633f03
up.2.block.2.nin_shortcut.bias: 3b633f03
up.2.block.2.conv1.bias_output: 3b5ab97f
up.2.block.2.temb_proj.bias: 3b5ab97f
up.2.block.1.conv2.bias_output: 3b054290
up.2.block.1.nin_shortcut.bias: 3b054290
up.2.block.1.conv1.bias_output: 3b58d5b4
up.2.block.1.temb_proj.bias: 3b58d5b4
up.2.block.0.conv2.bias_output: 3b14a478
up.2.block.0.nin_shortcut.bias: 3b14a478
up.2.block.0.conv1.bias_output: 3b1346a2
up.2.block.0.temb_proj.bias: 3b1346a2
up.1.block.2.conv2.bias_output: 3bb2fa3f
up.1.block.2.nin_shortcut.bias: 3bb2fa3f
up.1.block.2.conv1.bias_output: 3b7a7421
up.1.block.2.temb_proj.bias: 3b7a7421
up.1.block.1.conv2.bias_output: 3b5343da
up.1.block.1.nin_shortcut.bias: 3b5343da
up.1.block.1.conv1.bias_output: 3b6b2bf4
up.1.block.1.temb_proj.bias: 3b6b2bf4
up.1.block.0.conv2.bias_output: 3bb6a56f
up.1.block.0.nin_shortcut.bias: 3bb6a56f
up.1.block.0.conv1.bias_output: 3b7bdd87
up.1.block.0.temb_proj.bias: 3b7bdd87
up.0.block.2.conv2.bias_output: 3b876b74
up.0.block.2.nin_shortcut.bias: 3b876b74
up.0.block.2.conv1.bias_output: 3af79513
up.0.block.2.temb_proj.bias: 3af79513
up.0.block.1.conv2.bias_output: 3b97e6dc
up.0.block.1.nin_shortcut.bias: 3b97e6dc
up.0.block.1.conv1.bias_output: 3aeff97d
up.0.block.1.temb_proj.bias: 3aeff97d
up.0.block.0.conv2.bias_output: 3bbf68ef
up.0.block.0.nin_shortcut.bias: 3bbf68ef
up.0.block.0.conv1.bias_output: 3b0eb810
up.0.block.0.temb_proj.bias: 3b0eb810
mid.block_2.conv1.bias_output: 3b0c3014
mid.block_2.temb_proj.bias: 3b0c3014
mid.block_1.conv1.bias_output: 3ad8663b
mid.block_1.temb_proj.bias: 3ad8663b
down.3.block.1.conv1.bias_output: 3ab314d2
down.3.block.1.temb_proj.bias: 3ab314d2
down.3.block.0.conv1.bias_output: 3aa58dd5
down.3.block.0.temb_proj.bias: 3aa58dd5
down.2.block.1.conv1.bias_output: 3af79f61
down.2.block.1.temb_proj.bias: 3af79f61
down.2.block.0.conv1.bias_output: 3b0a9250
down.2.block.0.temb_proj.bias: 3b0a9250
down.1.block.1.conv1.bias_output: 3b5c3af6
down.1.block.1.temb_proj.bias: 3b5c3af6
down.1.block.0.conv2.bias_output: 3ba664ff
down.1.block.0.nin_shortcut.bias: 3ba664ff
down.1.block.0.conv1.bias_output: 3b815865
down.1.block.0.temb_proj.bias: 3b815865
down.0.block.1.conv1.bias_output: 3b7bbe93
down.0.block.1.temb_proj.bias: 3b7bbe93
down.0.block.0.conv1.bias_output: 3bbee7a3
down.0.block.0.temb_proj.bias: 3bbee7a3
/Cast_output_0: 4051b061
/block.1/norm1_6/Reshape_output_0: 3ee39018
/attn.2/norm/Reshape_1_output_0: 3d2c9527
ONNXTRT_Broadcast_1062_output: 3bd6d1bb
/block.1/norm2_5/Add_output_0: 3dace18c
onnx::Mul_1868_output: 3c893e8e
/attn.1_1/Softmax_output: 3a6d0905
/Unsqueeze_output_0: 4051b061
/Constant_1_output_0_output: 3c010a14
/Mul_output_0: 3fc67af6
/Sin_output_0: 3c07426b
/Cos_output_0: 3c010a0c
/Concat_output_0: 3c010a0c
temb.dense.0.weight_output: 3b8c4b1a
/dense.0/Gemm_output: 3c97723b
temb.dense.0.bias_output: 3b0a72d1
ONNXTRT_Broadcast_output: 3b0a72d1
/dense.0/Gemm_output_0: 3c9b0d54
/Sigmoid_output_0: 3b989387
/Mul_1_output_0: 3c020cf3
temb.dense.1.weight_output: 3b29c707
/dense.1/Gemm_output: 3d0b7d5e
temb.dense.1.bias_output: 3acf3dfa
ONNXTRT_Broadcast_4_output: 3acf3dfa
/dense.1/Gemm_output_0: 3c5ceeae
/conv_in/Conv_output_0: 3d772ce3
/block.0/norm1/Reshape_output_0: 3d772ce3
/block.0/norm1/InstanceNormalization_output_0: 3d31b18c
/attn.0_1/Reshape_output_0: 3d7ecd34
/block.2/nin_shortcut_1/Conv_output_0: 3ddd252a
/block.0/norm1/Reshape_1_output_0: 3d31b18c
onnx::Mul_1767_output: 3c989f5c
ONNXTRT_Broadcast_11_output: 3c989f5c
/block.0/norm1/Mul_output_0: 3d2b2b56
onnx::Add_1768_output: 3b963415
ONNXTRT_Broadcast_13_output: 3b963415
/block.0/norm1/Add_output_0: 3d31323e
/block.0/Sigmoid_output_0: 3c04a129
/block.0/Mul_output_0: 3cb1c880
/block.0/conv1/Conv_output_0: 3eef8678
/block.0/Sigmoid_1_output_0: 3b825e7f
/block.0/Mul_1_output_0: 3c1aa3bc
down.0.block.0.temb_proj.weight_output: 3c3f7b44
/block.0/temb_proj/Gemm_output: 3f0744a0
ONNXTRT_Broadcast_15_output: 3bbee7a3
/block.0/temb_proj/Gemm_output_0: 3f0ebe56
/block.0/temb_proj_5/Gemm_output: 3cea2bdb
/block.0_5/Mul_output_0: 3cc205de
onnx::Mul_1883_output: 3cb709b7
/attn.2/Mul_1_output_0: 3d93ec31
/block.0/norm1_5/Reshape_1_output_0: 3d4ca1dc
/block.2/conv2_3/Conv_output_0: 3fa70a9f
/block.0/Unsqueeze_output_0: 3f0ebe56
/block.2_2/Unsqueeze_1_output_0: 3e01a8c8
onnx::Mul_1851_output: 3c8198d4
ONNXTRT_Broadcast_971_output: 3a010a14
/block.2/temb_proj_1/Gemm_output_0: 3d516d73
ONNXTRT_Broadcast_1028_output: 3b9b55e6
/block.2_1/Mul_output_0: 3cb0e2e7
/block.0/Unsqueeze_1_output_0: 3f0ebe56
/block.0/Add_output_0: 3f3ea149
/block.0/norm2/Reshape_output_0: 3f3ea149
/block.0/norm2/InstanceNormalization_output_0: 3d803967
/block.1/nin_shortcut_2/Conv_output_0: 3f12de1f
/block.0/norm2/Reshape_1_output_0: 3d803967
onnx::Mul_1769_output: 3cae0ab5
ONNXTRT_Broadcast_41_output: 3cae0ab5
/block.0/norm2/Mul_output_0: 3d95a729
onnx::Add_1770_output: 3c0dc603
ONNXTRT_Broadcast_43_output: 3c0dc603
/block.0/norm2/Add_output_0: 3d8c4274
/block.0/Sigmoid_2_output_0: 3c00f22e
/block.0/Mul_2_output_0: 3ce87f26
/block.0/conv2/Conv_output_0: 3d8d6b51
/block.0/Add_1_output_0: 3dbc735a
/block.1/norm1/Reshape_output_0: 3dbc735a
/block.1/norm1/InstanceNormalization_output_0: 3d179b07
ONNXTRT_Broadcast_826_output: 3cacafa2
/Concat_6_output_0: 3ea6e409
/block.1/norm1/Reshape_1_output_0: 3d179b07
onnx::Mul_1771_output: 3cac897e
ONNXTRT_Broadcast_51_output: 3cac897e
/block.1/norm1/Mul_output_0: 3d54b2c1
onnx::Add_1772_output: 3bec6095
ONNXTRT_Broadcast_53_output: 3bec6095
/block.1/norm1/Add_output_0: 3d668717
/block.1/Sigmoid_output_0: 3c00e5ba
/block.1/Mul_output_0: 3cfff632
/block.1/conv1/Conv_output_0: 3eaf95eb
down.0.block.1.temb_proj.weight_output: 3c094cbd
/block.1/temb_proj/Gemm_output: 3eb717aa
ONNXTRT_Broadcast_55_output: 3b7bbe93
/block.1/temb_proj/Gemm_output_0: 3ec4b3e4
/attn.1_1/Softmax_output_0: 3a6d0905
onnx::Add_1852_output: 3c0a9422
/block.0/norm2_7/Reshape_output_0: 3edd9914
/block.1/Unsqueeze_output_0: 3ec4b3e4
/attn.0/norm_1/Reshape_output_0: 3efbb8d4
up.1.block.2.temb_proj.weight_output: 3bfd74d0
up.1.block.1.temb_proj.weight_output: 3c06f043
/Concat_9_output_0: 3f2271f5
/block.2_3/Mul_1_output_0: 3d66c3d9
/block.2_1/Sigmoid_output_0: 3c052e75
/block.1/Unsqueeze_1_output_0: 3ec4b3e4
/block.1/Add_output_0: 3f1588b1
/block.1/norm2/Reshape_output_0: 3f1588b1
/block.1/norm2/InstanceNormalization_output_0: 3d40478a
/block.1/nin_shortcut_1/Conv_output_0: 3e1c3c23
/block.1/norm2/Reshape_1_output_0: 3d40478a
onnx::Mul_1773_output: 3c9603f4
ONNXTRT_Broadcast_81_output: 3c9603f4
/block.1/norm2/Mul_output_0: 3d918e67
onnx::Add_1774_output: 3c1e3524
ONNXTRT_Broadcast_83_output: 3c1e3524
/block.1/norm2/Add_output_0: 3d8f69b3
/block.1/Sigmoid_1_output_0: 3c01026b
/block.1/Mul_1_output_0: 3d264425
/block.1/conv2/Conv_output_0: 3df46239
/block.1/Add_1_output_0: 3e071149
/block.2/nin_shortcut_2/Conv_output_0: 3f1f1568
onnx::Mul_1866_output: 3c426c31
/block.2_1/Unsqueeze_1_output_0: 3d516d73
onnx::Add_1848_output: 3c477af5
/block.2/norm2_3/InstanceNormalization_output_0: 3d540d46
ONNXTRT_Broadcast_1115_output: 3a010a14
onnx::Add_1876_output: 3c375f04
/attn.0/norm_1/Reshape_1_output_0: 3d2d2a7f
/block.0_7/Unsqueeze_1_output_0: 3daac793
/block.2/norm2_2/Mul_output_0: 3d8216e3
/block.0/norm2_7/InstanceNormalization_output_0: 3d25599a
/block.2_2/Mul_1_output_0: 3cc0a537
/block.2/norm2_3/Reshape_output_0: 3e7b001f
/Concat_10_output_0: 400776d2
/block.0_7/Mul_output_0: 3c90a483
/norm_out/Reshape_1_output_0: 3d5da51a
ONNXTRT_Broadcast_1242_output: 3cb709b7
up.0.block.0.temb_proj.weight_output: 3bc50fb8
ONNXTRT_Broadcast_906_output: 3c8198d4
/block.1/norm2_6/InstanceNormalization_output_0: 3d24f9f8
ONNXTRT_Broadcast_1252_output: 3d04ebcf
/block.0/temb_proj_5/Gemm_output_0: 3cf71ce8
/block.1_6/Unsqueeze_1_output_0: 3da5b7cf
/block.2/norm1_3/Mul_output_0: 3d08a1b9
onnx::Add_1874_output: 3c7e5164
/block.1/norm1_6/Add_output_0: 3d6d0870
/block.2/temb_proj_2/Gemm_output_0: 3e01a8c8
/block.2/temb_proj_3/Gemm_output_0: 3e1a9590
ONNXTRT_Broadcast_1064_output: 3b7a7421
/block.2/conv1_3/Conv_output_0: 3e4f8e27
ONNXTRT_Broadcast_1030_output: 3b662a76
/block.2/norm2_3/Add_output_0: 3dae8f42
onnx::Add_1867_output: 3bd6d1bb
/block.2/conv1_2/Conv_output_0: 3f0308d4
ONNXTRT_Broadcast_988_output: 3c5c58e2
/block.1/conv1_6/Conv_output_0: 3ec0276c
/attn.2/q/Conv_output_0: 3d6a272c
ONNXTRT_Broadcast_866_output: 3ca1ae87
/block.1/norm2_5/Reshape_1_output_0: 3d27c996
/block.1/norm2_5/InstanceNormalization_output_0: 3d27c996
/attn.0/norm_1/Mul_output_0: 3cb45e8d
/block.1_5/Add_output_0: 3ede8363
/block.1_5/Mul_1_output_0: 3c99ef95
ONNXTRT_Broadcast_868_output: 3c477af5
/attn.1_1/Mul_1_output_0: 3dd8e7e7
/downsample/Pad_output_0: 3e071149
/downsample/conv/Conv_output_0: 3e9a587d
/block.0/norm1_1/Reshape_output_0: 3e9a587d
/block.0/norm1_1/InstanceNormalization_output_0: 3d5dcd58
/attn.0/norm_1/Add_output_0: 3c9eee7c
/block.0/norm1_1/Reshape_1_output_0: 3d5dcd58
onnx::Mul_1780_output: 3c7af8b4
ONNXTRT_Broadcast_146_output: 3c7af8b4
/block.0/norm1_1/Mul_output_0: 3d30609a
onnx::Add_1781_output: 3bb9217b
ONNXTRT_Broadcast_148_output: 3bb9217b
/block.0/norm1_1/Add_output_0: 3d32d288
/block.0_1/Sigmoid_output_0: 3c00fb11
/block.0_1/Mul_output_0: 3ce83962
/block.0/conv1_1/Conv_output_0: 3f216e9f
down.1.block.0.temb_proj.weight_output: 3c6699b7
/block.0/temb_proj_1/Gemm_output: 3efa3c69
ONNXTRT_Broadcast_150_output: 3b815865
/block.0/temb_proj_1/Gemm_output_0: 3efc354d
/block.0/norm2_7/Mul_output_0: 3d9bfe2e
/block.0/norm1_6/Reshape_output_0: 3ee1a608
/Concat_12_output_0: 3f91a3c2
/attn.0_1/Add_output_0: 3f109bd6
/block.2_1/Sigmoid_1_output_0: 3bf7b041
/block.0_1/Unsqueeze_output_0: 3efc354d
ONNXTRT_Broadcast_992_output: 3b6b2bf4
/block.2/norm1_1/Reshape_output_0: 3ea6e409
/attn.1_1/Reshape_2_output_0: 3db8a2aa
/block.2/norm2_1/Mul_output_0: 3dae5cf2
/block.1/norm1_6/Reshape_1_output_0: 3d4573b7
/Sigmoid_1_output_0: 3c006c23
/block.0_1/Unsqueeze_1_output_0: 3efc354d
/block.0_1/Add_output_0: 3f6569e9
/block.0/norm2_1/Reshape_output_0: 3f6569e9
/block.0/norm2_1/InstanceNormalization_output_0: 3d520816
ONNXTRT_Broadcast_1244_output: 3c47e068
/block.0/conv1_6/Conv_output_0: 3f00dcad
/block.0/norm2_1/Reshape_1_output_0: 3d520816
onnx::Mul_1782_output: 3c5cfaba
ONNXTRT_Broadcast_176_output: 3c5cfaba
/block.0/norm2_1/Mul_output_0: 3d5b97f8
onnx::Add_1783_output: 3b8cf18b
ONNXTRT_Broadcast_178_output: 3b8cf18b
/block.0/norm2_1/Add_output_0: 3d636a9d
/block.0_1/Sigmoid_1_output_0: 3bea2495
/block.0_1/Mul_1_output_0: 3b1085ca
/block.0/conv2_1/Conv_output_0: 3d967b2e
/block.0/nin_shortcut/Conv_output_0: 3dedc856
/block.0_1/Add_1_output_0: 3df11a83
/attn.0/norm/Reshape_output_0: 3df11a83
/attn.0/norm/InstanceNormalization_output_0: 3d28624f
/block.1/conv2_7/Conv_output_0: 3f045d86
/attn.0/norm/Reshape_1_output_0: 3d28624f
onnx::Mul_1784_output: 3b8b92a0
ONNXTRT_Broadcast_186_output: 3b8b92a0
/attn.0/norm/Mul_output_0: 3c9550d8
onnx::Add_1785_output: 3bb448ab
ONNXTRT_Broadcast_188_output: 3bb448ab
/attn.0/norm/Add_output_0: 3c9a2a9e
/attn.0/q/Conv_output_0: 3d496843
/attn.0/k/Conv_output_0: 3d2a231b
/attn.0/v/Conv_output_0: 3d24944e
/block.0_6/Sigmoid_output_0: 3c019726
/attn.1_1/Constant_4_output_0_output: 3a010a14
/block.1/norm2_6/Reshape_1_output_0: 3d24f9f8
/block.1_6/Mul_1_output_0: 3c99fd5d
/block.1/norm1_5/Reshape_output_0: 3ed65488
/block.0/conv1_7/Conv_output_0: 3e8ea778
/block.0/norm1_5/Add_output_0: 3d56b26d
ONNXTRT_Broadcast_1018_output: 3c9c9ebe
/block.1/temb_proj_6/Gemm_output_0: 3da5b7cf
/block.2_3/Add_output_0: 3e7b001f
/block.0/norm1_7/Reshape_output_0: 400776d2
onnx::Add_1871_output: 3b8f3652
ONNXTRT_Broadcast_1090_output: 3c893e8e
/block.0/norm1_7/InstanceNormalization_output_0: 3d6670fe
/Concat_4_output_0: 3f4cf15b
/block.0/norm1_7/Mul_output_0: 3d33cd26
/block.0/temb_proj_7/Gemm_output: 3e16b643
/block.1_5/Unsqueeze_output_0: 3d5362b4
/block.1/temb_proj_5/Gemm_output: 3d3b69cc
/block.1_5/Sigmoid_output_0: 3c07d2eb
onnx::Add_1859_output: 3b669c26
/block.1/norm2_5/Mul_output_0: 3dbda70f
up.2.block.1.temb_proj.weight_output: 3bda0ce4
/block.1/norm1_5/Add_output_0: 3d62c509
/attn.0/Reshape_output_0: 3d496843
/attn.0/Transpose_output_0: 3d496843
/attn.0/Reshape_1_output_0: 3d2a231b
/attn.0/MatMul_output_0: 3f9c6469
/attn.0/Constant_4_output_0_output: 3a010a14
ONNXTRT_Broadcast_201_output: 3a010a14
/attn.0/Mul_1_output_0: 3d9c6469
/attn.0/Softmax_output: 3a5c335f
/attn.0/Softmax_output_0: 3a5c335f
/block.2_1/Mul_1_output_0: 3c66a704
/block.2_1/Add_output_0: 3f142373
/attn.0/Reshape_2_output_0: 3d24944e
/attn.0/Transpose_1_output_0: 3a5c335f
/attn.0/MatMul_1_output_0: 3ce5f818
/block.2_2/Sigmoid_1_output_0: 3c00de36
/block.1_6/Mul_output_0: 3cb1d88d
ONNXTRT_Broadcast_840_output: 3b58d5b4
/block.2_3/Add_1_output_0: 40992218
/block.1_5/Mul_output_0: 3cc40ce4
/attn.0/Reshape_3_output_0: 3ce5f818
/attn.0/proj_out/Conv_output_0: 3dc51b93
/attn.0/Add_output_0: 3df073b0
/block.1/norm1_1/Reshape_output_0: 3df073b0
/block.1/norm1_1/InstanceNormalization_output_0: 3d3f1bc3
/attn.1_1/Reshape_3_output_0: 3dad3df5
/block.1/norm1_1/Reshape_1_output_0: 3d3f1bc3
onnx::Mul_1786_output: 3c79689b
ONNXTRT_Broadcast_218_output: 3c79689b
/block.1/norm1_1/Mul_output_0: 3d81d8ab
onnx::Add_1787_output: 3bc111af
ONNXTRT_Broadcast_220_output: 3bc111af
/block.1/norm1_1/Add_output_0: 3d7491e7
/block.1_1/Sigmoid_output_0: 3c008936
/block.1_1/Mul_output_0: 3ce5bd5b
/block.1/conv1_1/Conv_output_0: 3ebf8190
down.1.block.1.temb_proj.weight_output: 3be84944
/block.1/temb_proj_1/Gemm_output: 3deea227
ONNXTRT_Broadcast_222_output: 3b5c3af6
/block.1/temb_proj_1/Gemm_output_0: 3da09d1a
/Mul_2_output_0: 3cd17969
/attn.2/Transpose_output_0: 3d6a272c
/block.0/norm2_6/InstanceNormalization_output_0: 3d32b636
/attn.2/MatMul_output_0: 3f93ec31
/upsample_2/Resize_output_0: 3f36e2fc
/block.1_1/Unsqueeze_output_0: 3da09d1a
/block.2/norm1_3/Reshape_output_0: 3f91a3c2
/upsample/conv/Conv_output_0: 3f671500
ONNXTRT_Broadcast_878_output: 3c523152
/block.1_1/Unsqueeze_1_output_0: 3da09d1a
/block.1_1/Add_output_0: 3f803c3e
/block.1/norm2_1/Reshape_output_0: 3f803c3e
/block.1/norm2_1/InstanceNormalization_output_0: 3d22a5ff
onnx::Add_1846_output: 3c479295
ONNXTRT_Broadcast_836_output: 3c4dd28d
/block.1/norm2_1/Reshape_1_output_0: 3d22a5ff
onnx::Mul_1788_output: 3c6cbc2f
ONNXTRT_Broadcast_248_output: 3c6cbc2f
/block.1/norm2_1/Mul_output_0: 3d5d22d7
onnx::Add_1789_output: 3ba3c275
ONNXTRT_Broadcast_250_output: 3ba3c275
/block.1/norm2_1/Add_output_0: 3d58b7aa
/block.1_1/Sigmoid_1_output_0: 3bfe3082
/block.1_1/Mul_1_output_0: 3c99fbeb
/block.1/conv2_1/Conv_output_0: 3d367ef0
/block.1_1/Add_1_output_0: 3ddc953a
/attn.1/norm/Reshape_output_0: 3ddc953a
/attn.1/norm/InstanceNormalization_output_0: 3d3e9ba6
/block.1_7/Mul_1_output_0: 3d405bb9
/attn.1/norm/Reshape_1_output_0: 3d3e9ba6
onnx::Mul_1790_output: 3b73f83d
ONNXTRT_Broadcast_258_output: 3b73f83d
/attn.1/norm/Mul_output_0: 3c86687a
onnx::Add_1791_output: 3ba90873
ONNXTRT_Broadcast_260_output: 3ba90873
/attn.1/norm/Add_output_0: 3c91a174
/attn.1/q/Conv_output_0: 3d2fe06d
/attn.1/k/Conv_output_0: 3d3e731e
/attn.1/v/Conv_output_0: 3d10977d
ONNXTRT_Broadcast_918_output: 3c8cc653
/block.1/norm1_5/InstanceNormalization_output_0: 3d48b500
/attn.1/norm_1/Reshape_1_output_0: 3d21736b
/block.2/norm1_3/InstanceNormalization_output_0: 3d34ca75
/block.0/norm2_6/Reshape_1_output_0: 3d32b636
/block.1_7/Sigmoid_1_output_0: 3c0108e8
/block.2_2/Mul_output_0: 3cd38f29
/attn.1/norm_1/Add_output_0: 3ca6f8fd
/attn.0_1/Constant_4_output_0_output: 3a010a14
/block.0_5/Add_1_output_0: 3ecc49a0
/block.0/conv2_5/Conv_output_0: 3f20cdcb
onnx::Add_1844_output: 3c6fcbd8
/block.0/norm2_5/Reshape_output_0: 3ed4a025
/block.0_6/Add_output_0: 3f009266
/block.2/temb_proj_3/Gemm_output: 3df33f1d
onnx::Mul_1843_output: 3cacafa2
/block.0_5/Unsqueeze_1_output_0: 3cf71ce8
/block.0/nin_shortcut_3/Conv_output_0: 3edf9e08
/block.0_5/Sigmoid_1_output_0: 3c09578f
/block.1/norm2_7/Add_output_0: 3da98415
/block.0/temb_proj_6/Gemm_output: 3d9d7868
/attn.1_1/Transpose_1_output_0: 3a6d0905
/attn.1/Reshape_output_0: 3d2fe06d
/attn.1/Transpose_output_0: 3d2fe06d
/attn.1/Reshape_1_output_0: 3d3e731e
/attn.1/MatMul_output_0: 3fc2afdc
/attn.1/Constant_4_output_0_output: 3a010a14
ONNXTRT_Broadcast_273_output: 3a010a14
/attn.1/Mul_1_output_0: 3dc2afdc
/attn.1/Softmax_output: 3a700484
/attn.1/Softmax_output_0: 3a700484
ONNXTRT_Broadcast_1060_output: 3c426c31
/block.0_5/Unsqueeze_output_0: 3cf71ce8
/attn.1/Reshape_2_output_0: 3d10977d
/attn.1/Transpose_1_output_0: 3a700484
/attn.1/MatMul_1_output_0: 3ccb5f79
ONNXTRT_Broadcast_828_output: 3c6fcbd8
ONNXTRT_Broadcast_990_output: 3c3e32ea
/attn.1/Reshape_3_output_0: 3ccb5f79
/attn.1/proj_out/Conv_output_0: 3d9c7b81
/attn.1/Add_output_0: 3db2892d
/block.1_6/Unsqueeze_output_0: 3da5b7cf
/attn.2/proj_out/Conv_output_0: 3ecbd9d6
/attn.2/Softmax_output: 3a3bfa1c
/block.2/temb_proj_2/Gemm_output: 3e04520e
onnx::Add_1850_output: 3c523152
/attn.1/norm_1/Reshape_output_0: 3f26f63d
/norm_out/InstanceNormalization_output_0: 3d5da51a
/block.2_2/Unsqueeze_output_0: 3e01a8c8
/attn.2/Reshape_2_output_0: 3dc3419d
/block.1/norm2_6/Add_output_0: 3d93ed27
/attn.2/Reshape_3_output_0: 3d99d0ac
/block.2/norm1_2/Reshape_1_output_0: 3d563b6a
ONNXTRT_Broadcast_1102_output: 3b8f3652
/block.2_2/Add_output_0: 3f05912c
noise_pred: 3d45fe9a
/block.0_7/Sigmoid_output_0: 3c04b60e
/block.1/nin_shortcut_3/Conv_output_0: 3ff5fa0a
/block.2/norm2_2/Reshape_1_output_0: 3d1bcebc
onnx::Add_1869_output: 3bfc744c
/block.2/conv2_2/Conv_output_0: 3e76afdb
/attn.1_1/Reshape_1_output_0: 3d838a96
onnx::Add_1882_output: 3bc99663
/block.0/norm1_6/Reshape_1_output_0: 3d650304
onnx::Mul_1845_output: 3c4dd28d
/block.2_3/Unsqueeze_output_0: 3e1a9590
/block.0_7/Add_output_0: 3edd9914
/attn.0_1/Transpose_1_output_0: 3a64796f
onnx::Add_1886_output: 3cb33291
/block.1_6/Add_output_0: 3eba4bec
up.2.block.2.temb_proj.weight_output: 3be40232
/block.2_2/Sigmoid_output_0: 3c00e7a4
ONNXTRT_Broadcast_796_output: 3c2a7bec
/block.2/norm1_3/Add_output_0: 3d03f2cc
onnx::Add_1857_output: 3c25d518
/attn.0/k_1/Conv_output_0: 3d3a7546
ONNXTRT_Broadcast_800_output: 3b1346a2
up.2.block.0.temb_proj.weight_output: 3ba85cc2
/block.0_5/Sigmoid_output_0: 3c0b8ddd
/block.0/norm1_5/Mul_output_0: 3d358ad0
/block.2_3/Unsqueeze_1_output_0: 3e1a9590
ONNXTRT_Broadcast_798_output: 3c40b959
onnx::Mul_1841_output: 3c2a7bec
ONNXTRT_Broadcast_1216_output: 3af79513
ONNXTRT_Broadcast_1212_output: 3c408182
ONNXTRT_Broadcast_1204_output: 3c3f43a0
/downsample_1/Pad_output_0: 3db2892d
/downsample/conv_1/Conv_output_0: 3e0e33a7
/block.0/norm1_2/Reshape_output_0: 3e0e33a7
/block.0/norm1_2/InstanceNormalization_output_0: 3d273d29
onnx::Add_1842_output: 3c40b959
/block.0/norm1_2/Reshape_1_output_0: 3d273d29
onnx::Mul_1797_output: 3c330a89
ONNXTRT_Broadcast_347_output: 3c330a89
/block.0/norm1_2/Mul_output_0: 3d7ede59
onnx::Add_1798_output: 3bbf682a
ONNXTRT_Broadcast_349_output: 3bbf682a
/block.0/norm1_2/Add_output_0: 3d8063b7
/block.0_2/Sigmoid_output_0: 3c01fa92
/block.0_2/Mul_output_0: 3cd27975
/block.0/conv1_2/Conv_output_0: 3ef4a025
down.2.block.0.temb_proj.weight_output: 3bb2cf25
/block.0/temb_proj_2/Gemm_output: 3d80d39d
ONNXTRT_Broadcast_351_output: 3b0a9250
/block.0/temb_proj_2/Gemm_output_0: 3d2b5a86
/attn.2/k/Conv_output_0: 3d6a61b5
ONNXTRT_Broadcast_1100_output: 3ba4966c
/block.1_6/Sigmoid_1_output_0: 3c00ad94
onnx::Mul_1858_output: 3b8adbd9
/block.0_2/Unsqueeze_output_0: 3d2b5a86
/Concat_7_output_0: 3ee1a608
/block.2/norm2_1/InstanceNormalization_output_0: 3d5ae266
/Concat_8_output_0: 3ee39018
/block.2_1/Unsqueeze_output_0: 3d516d73
/block.2/norm1_2/Reshape_output_0: 3f2271f5
/block.2/norm1_1/Mul_output_0: 3d5d96ca
/block.0_2/Unsqueeze_1_output_0: 3d2b5a86
/block.0_2/Add_output_0: 3f0c2aa8
/block.0/norm2_2/Reshape_output_0: 3f0c2aa8
/block.0/norm2_2/InstanceNormalization_output_0: 3d44ea24
onnx::Add_1880_output: 3c3f43a0
/block.0/norm1_5/InstanceNormalization_output_0: 3d4ca1dc
/block.0/norm2_2/Reshape_1_output_0: 3d44ea24
onnx::Mul_1799_output: 3c453e81
ONNXTRT_Broadcast_377_output: 3c453e81
/block.0/norm2_2/Mul_output_0: 3d53059d
onnx::Add_1800_output: 3bc83456
ONNXTRT_Broadcast_379_output: 3bc83456
/block.0/norm2_2/Add_output_0: 3d767585
/block.0_2/Sigmoid_1_output_0: 3bf97112
/block.0_2/Mul_1_output_0: 3c5b9bdb
/block.0/conv2_2/Conv_output_0: 3d95e21d
/block.0_2/Add_1_output_0: 3e08127e
/block.1/norm1_2/Reshape_output_0: 3e08127e
/block.1/norm1_2/InstanceNormalization_output_0: 3d0eea7a
/block.1/norm1_2/Reshape_1_output_0: 3d0eea7a
onnx::Mul_1801_output: 3c37c33f
ONNXTRT_Broadcast_387_output: 3c37c33f
/block.1/norm1_2/Mul_output_0: 3d33047b
onnx::Add_1802_output: 3bc5e0ca
ONNXTRT_Broadcast_389_output: 3bc5e0ca
/block.1/norm1_2/Add_output_0: 3d34eb6b
/block.1_2/Sigmoid_output_0: 3c010f47
/block.1_2/Mul_output_0: 3cb2bdb7
/block.1/conv1_2/Conv_output_0: 3e864dfc
down.2.block.1.temb_proj.weight_output: 3bd18b18
/block.1/temb_proj_2/Gemm_output: 3d113934
ONNXTRT_Broadcast_391_output: 3af79f61
/block.1/temb_proj_2/Gemm_output_0: 3d1bc5c3
ONNXTRT_Broadcast_1164_output: 3c375f04
/block.1_5/Add_1_output_0: 3e758c0f
/norm_out/Reshape_output_0: 40992218
/block.0_6/Mul_output_0: 3c9a79cf
ONNXTRT_Broadcast_1043_output: 3a010a14
onnx::Mul_1862_output: 3c9c9ebe
/block.1_2/Unsqueeze_output_0: 3d1bc5c3
/attn.2/norm/InstanceNormalization_output_0: 3d2c9527
/block.1/conv2_6/Conv_output_0: 3e0f419c
ONNXTRT_Broadcast_1092_output: 3bfc744c
/block.0/norm2_6/Mul_output_0: 3d9120fb
/block.1/norm2_6/Mul_output_0: 3d81b371
/block.1_2/Unsqueeze_1_output_0: 3d1bc5c3
/block.1_2/Add_output_0: 3e89a1f9
/block.1/norm2_2/Reshape_output_0: 3e89a1f9
/block.1/norm2_2/InstanceNormalization_output_0: 3d1081d5
/block.2_3/Mul_output_0: 3c9a8f3e
ONNXTRT_Broadcast_1132_output: 3c584f4b
/block.1/norm2_2/Reshape_1_output_0: 3d1081d5
onnx::Mul_1803_output: 3c67ade7
ONNXTRT_Broadcast_417_output: 3c67ade7
/block.1/norm2_2/Mul_output_0: 3d4b332e
onnx::Add_1804_output: 3b8a4834
ONNXTRT_Broadcast_419_output: 3b8a4834
/block.1/norm2_2/Add_output_0: 3d57333b
/block.1_2/Sigmoid_1_output_0: 3bffb048
/block.1_2/Mul_1_output_0: 3c66515d
/block.1/conv2_2/Conv_output_0: 3d8b0f92
/block.1_2/Add_1_output_0: 3e05309e
onnx::Add_1861_output: 3c3e32ea
/block.1/temb_proj_6/Gemm_output: 3da777f9
/attn.2/Transpose_1_output_0: 3a3bfa1c
/block.1_6/Sigmoid_output_0: 3c00f8ab
onnx::Mul_1856_output: 3c9b19f6
/block.0_7/Sigmoid_1_output_0: 3c00f80a
/block.2/conv2_1/Conv_output_0: 3e2559b2
/block.2/norm2_1/Reshape_output_0: 3f142373
/attn.2/MatMul_1_output_0: 3d99d0ac
ONNXTRT_Broadcast_1020_output: 3c2b0333
/attn.2/norm/Add_output_0: 3ccd6b5e
/block.0_6/Unsqueeze_output_0: 3dbc6516
/block.1/temb_proj_5/Gemm_output_0: 3d5362b4
/block.2/nin_shortcut_3/Conv_output_0: 409583b4
/block.1/conv1_5/Conv_output_0: 3edf0c00
/block.1/norm1_6/InstanceNormalization_output_0: 3d4573b7
/block.2/norm2_2/Add_output_0: 3d90c856
ONNXTRT_Broadcast_916_output: 3c51cef7
/block.0/norm1_7/Add_output_0: 3d536b13
/block.0/temb_proj_7/Gemm_output_0: 3daac793
/attn.0/proj_out_1/Conv_output_0: 3ea54cd2
/block.2/norm2_2/InstanceNormalization_output_0: 3d1bcebc
/attn.1/proj_out_1/Conv_output_0: 3edfe071
/block.1/norm2_5/Reshape_output_0: 3ede8363
/block.1/conv2_5/Conv_output_0: 3e72442a
/block.1_5/Sigmoid_1_output_0: 3c020277
onnx::Mul_1885_output: 3d04ebcf
up.0.block.2.temb_proj.weight_output: 3ba266cc
ONNXTRT_Broadcast_1254_output: 3cb33291
/block.0/norm2_7/Reshape_1_output_0: 3d25599a
ONNXTRT_Broadcast_1214_output: 3bc99663
onnx::Mul_1875_output: 3cfa0104
ONNXTRT_Broadcast_908_output: 3c0a9422
/norm_out/Mul_output_0: 3da037ba
ONNXTRT_Broadcast_946_output: 3c9b19f6
/norm_out/Add_output_0: 3dcb38e8
/attn.0/norm_1/InstanceNormalization_output_0: 3d2d2a7f
/attn.2/Reshape_1_output_0: 3d6a61b5
/block.2/norm2_3/Mul_output_0: 3dc47e76
/attn.2/Constant_4_output_0_output: 3a010a14
/upsample/conv_2/Conv_output_0: 408a4fa6
/block.0_7/Mul_1_output_0: 3d2591ea
/block.2/norm2_1/Reshape_1_output_0: 3d5ae266
/block.0/norm1_5/Reshape_output_0: 3f4cf15b
/upsample/Resize_output_0: 3e91a587
/block.2/norm1_1/Add_output_0: 3d7bd6d2
/downsample_2/Pad_output_0: 3e05309e
/downsample/conv_2/Conv_output_0: 3eb164a8
/block.0/norm1_3/Reshape_output_0: 3eb164a8
/block.0/norm1_3/InstanceNormalization_output_0: 3d0dcca0
ONNXTRT_Broadcast_838_output: 3c479295
/block.1/norm1_5/Mul_output_0: 3d848df1
/block.0/norm1_3/Reshape_1_output_0: 3d0dcca0
onnx::Mul_1810_output: 3c180c11
ONNXTRT_Broadcast_484_output: 3c180c11
/block.0/norm1_3/Mul_output_0: 3ce25732
onnx::Add_1811_output: 3b9d7a34
ONNXTRT_Broadcast_486_output: 3b9d7a34
/block.0/norm1_3/Add_output_0: 3d11d58b
/block.0_3/Sigmoid_output_0: 3c01f56e
/block.0_3/Mul_output_0: 3c8fd90e
/block.0/conv1_3/Conv_output_0: 3e3f4c83
down.3.block.0.temb_proj.weight_output: 3b7606f6
/block.0/temb_proj_3/Gemm_output: 3d107f88
ONNXTRT_Broadcast_488_output: 3aa58dd5
/block.0/temb_proj_3/Gemm_output_0: 3d031e1b
/block.2_2/Add_1_output_0: 3f2f05f7
/attn.1_1/Reshape_output_0: 3d8d2ed8
/block.2/norm1_3/Reshape_1_output_0: 3d34ca75
/block.1/norm1_5/Reshape_1_output_0: 3d48b500
/attn.1_1/Transpose_output_0: 3d8d2ed8
/block.0_3/Unsqueeze_output_0: 3d031e1b
/upsample/conv_1/Conv_output_0: 3f2adc0c
/attn.0_1/MatMul_1_output_0: 3d5094f5
onnx::Mul_1870_output: 3ba4966c
/attn.0/q_1/Conv_output_0: 3d7ecd34
ONNXTRT_Broadcast_876_output: 3c5eda69
/block.0_3/Unsqueeze_1_output_0: 3d031e1b
/block.0_3/Add_output_0: 3e42c595
/block.0/norm2_3/Reshape_output_0: 3e42c595
/block.0/norm2_3/InstanceNormalization_output_0: 3d1390d2
onnx::Add_1884_output: 3c47e068
/block.2/norm1_1/Reshape_1_output_0: 3d3b9f48
/block.0/norm2_3/Reshape_1_output_0: 3d1390d2
onnx::Mul_1812_output: 3c675914
ONNXTRT_Broadcast_514_output: 3c675914
/block.0/norm2_3/Mul_output_0: 3d864986
onnx::Add_1813_output: 3c05cfbf
ONNXTRT_Broadcast_516_output: 3c05cfbf
/block.0/norm2_3/Add_output_0: 3d863ee4
/block.0_3/Sigmoid_1_output_0: 3bfda5c9
/block.0_3/Mul_1_output_0: 3cc0bcf3
/block.0/conv2_3/Conv_output_0: 3e13053c
/block.0_3/Add_1_output_0: 3eb04360
/block.1/norm1_3/Reshape_output_0: 3eb04360
/block.1/norm1_3/InstanceNormalization_output_0: 3d0e91ca
/block.0_5/Mul_1_output_0: 3ccf92b3
/block.0/norm2_5/Reshape_1_output_0: 3d2ba5e2
/block.1/norm1_3/Reshape_1_output_0: 3d0e91ca
onnx::Mul_1814_output: 3c219013
ONNXTRT_Broadcast_524_output: 3c219013
/block.1/norm1_3/Mul_output_0: 3cffd87f
onnx::Add_1815_output: 3b9ec175
ONNXTRT_Broadcast_526_output: 3b9ec175
/block.1/norm1_3/Add_output_0: 3d0730a3
/block.1_3/Sigmoid_output_0: 3bf9766b
/block.1_3/Mul_output_0: 3c8ff1a8
/block.1/conv1_3/Conv_output_0: 3e269666
down.3.block.1.temb_proj.weight_output: 3b70413f
/block.1/temb_proj_3/Gemm_output: 3ccbdb11
ONNXTRT_Broadcast_528_output: 3ab314d2
/block.1/temb_proj_3/Gemm_output_0: 3cd3f8b8
/attn.1_1/MatMul_1_output_0: 3dad3df5
/block.0_6/Add_1_output_0: 3efbb8d4
/block.0/norm2_5/Add_output_0: 3db2059e
/block.0/norm2_6/Reshape_output_0: 3f009266
onnx::Mul_1864_output: 3b9b55e6
ONNXTRT_Broadcast_920_output: 3b7bdd87
/block.1_3/Unsqueeze_output_0: 3cd3f8b8
/upsample_1/Resize_output_0: 3e371e8e
ONNXTRT_Broadcast_1162_output: 3cfa0104
/block.2/norm1_2/Add_output_0: 3d7c6378
/block.1_3/Unsqueeze_1_output_0: 3cd3f8b8
/block.1_3/Add_output_0: 3e1d7e57
/block.1/norm2_3/Reshape_output_0: 3e1d7e57
/block.1/norm2_3/InstanceNormalization_output_0: 3d01575d
/block.0/conv2_7/Conv_output_0: 3ee3170d
/block.0/nin_shortcut_4/Conv_output_0: 3ffee67f
/block.1/norm2_3/Reshape_1_output_0: 3d01575d
onnx::Mul_1816_output: 3c7ea67c
ONNXTRT_Broadcast_554_output: 3c7ea67c
/block.1/norm2_3/Mul_output_0: 3d81a805
onnx::Add_1817_output: 3c14b43e
ONNXTRT_Broadcast_556_output: 3c14b43e
/block.1/norm2_3/Add_output_0: 3d6fb95c
/block.1_3/Sigmoid_1_output_0: 3bfe9cf7
/block.1_3/Mul_1_output_0: 3cb0e72b
/block.1/conv2_3/Conv_output_0: 3df5307d
/block.1_3/Add_1_output_0: 3ec1ab4d
/block_1/norm1/Reshape_output_0: 3ec1ab4d
/block_1/norm1/InstanceNormalization_output_0: 3ce1b576
/block.0_7/Add_1_output_0: 401a1415
/Concat_11_output_0: 3fab1020
/block_1/norm1/Reshape_1_output_0: 3ce1b576
onnx::Mul_1818_output: 3c31fc85
ONNXTRT_Broadcast_564_output: 3c31fc85
/block_1/norm1/Mul_output_0: 3d1be012
onnx::Add_1819_output: 3bb6bfa9
ONNXTRT_Broadcast_566_output: 3bb6bfa9
/block_1/norm1/Add_output_0: 3d08d49f
/block_1/Sigmoid_output_0: 3c0a60ab
/block_1/Mul_output_0: 3c9a1b34
/block_1/conv1/Conv_output_0: 3e118932
mid.block_1.temb_proj.weight_output: 3b7fa774
/block_1/temb_proj/Gemm_output: 3cdbf20e
ONNXTRT_Broadcast_568_output: 3ad8663b
/block_1/temb_proj/Gemm_output_0: 3d034a76
/block.1/norm1_6/Mul_output_0: 3d7f2afd
/block.0/conv2_6/Conv_output_0: 3e8b91ae
/attn.0_1/Softmax_output_0: 3a64796f
/block.0_6/Unsqueeze_1_output_0: 3dbc6516
/attn.2/norm/Reshape_output_0: 3f2f05f7
up.1.block.0.temb_proj.weight_output: 3bf8619a
/block_1/Unsqueeze_output_0: 3d034a76
/attn.0_1/Reshape_3_output_0: 3d5094f5
/attn.0_1/Transpose_output_0: 3d7ecd34
/block.1_6/Add_1_output_0: 3f26f63d
/attn.1_1/MatMul_output_0: 3fd8e7e7
/block.0_7/Unsqueeze_output_0: 3daac793
/block_1/Unsqueeze_1_output_0: 3d034a76
/block_1/Add_output_0: 3e201e7f
/block_1/norm2/Reshape_output_0: 3e201e7f
/block_1/norm2/InstanceNormalization_output_0: 3cf7b850
/block.1/norm1_7/Reshape_output_0: 3fab1020
/block_1/norm2/Reshape_1_output_0: 3cf7b850
onnx::Mul_1820_output: 3c81e81a
ONNXTRT_Broadcast_594_output: 3c81e81a
/block_1/norm2/Mul_output_0: 3d584a66
onnx::Add_1821_output: 3c213570
ONNXTRT_Broadcast_596_output: 3c213570
/block_1/norm2/Add_output_0: 3d817c29
/block_1/Sigmoid_1_output_0: 3c039bd5
/block_1/Mul_1_output_0: 3cb21cd1
/block_1/conv2/Conv_output_0: 3e0bd83f
/block_1/Add_1_output_0: 3ed3feee
/attn_1/norm/Reshape_output_0: 3ed3feee
/attn_1/norm/InstanceNormalization_output_0: 3d0a8303
/attn_1/norm/Reshape_1_output_0: 3d0a8303
onnx::Mul_1822_output: 3b66f55a
ONNXTRT_Broadcast_604_output: 3b66f55a
/attn_1/norm/Mul_output_0: 3c4f1cab
onnx::Add_1823_output: 3a553aae
ONNXTRT_Broadcast_606_output: 3a553aae
/attn_1/norm/Add_output_0: 3c1a820d
/attn_1/q/Conv_output_0: 3cc0dca7
/attn_1/k/Conv_output_0: 3ce1c599
/attn_1/v/Conv_output_0: 3cbd23b8
/block.1/norm1_7/Reshape_1_output_0: 3d7753c9
onnx::Add_1878_output: 3c109599
/block.1/norm1_7/InstanceNormalization_output_0: 3d7753c9
onnx::Mul_1877_output: 3c46b6fd
/block.0/norm1_6/InstanceNormalization_output_0: 3d650304
ONNXTRT_Broadcast_1174_output: 3c109599
/block.2/norm2_2/Reshape_output_0: 3f05912c
ONNXTRT_Broadcast_1172_output: 3c46b6fd
/attn.1_1/Add_output_0: 3f2d8d39
/block.1/norm2_6/Reshape_output_0: 3eba4bec
onnx::Mul_1847_output: 3ca1ae87
/block.1/norm1_7/Mul_output_0: 3d1b5e47
onnx::Mul_1860_output: 3c5c58e2
/block.1/norm1_7/Add_output_0: 3d0fceaa
/attn.2/Reshape_output_0: 3d6a272c
/block.1_7/Sigmoid_output_0: 3bfe7f89
/block.1/temb_proj_7/Gemm_output: 3e272c57
ONNXTRT_Broadcast_958_output: 3b669c26
onnx::Mul_1873_output: 3c584f4b
/block.1_7/Mul_output_0: 3cb150d8
ONNXTRT_Broadcast_1176_output: 3aeff97d
/block.2/norm1_2/InstanceNormalization_output_0: 3d563b6a
/block.2/norm2_1/Add_output_0: 3dcf01ee
/block.1/conv1_7/Conv_output_0: 3e4b9038
/block.1/temb_proj_7/Gemm_output_0: 3e2b5186
/block.1_7/Unsqueeze_output_0: 3e2b5186
/attn_1/Reshape_output_0: 3cc0dca7
/attn_1/Transpose_output_0: 3cc0dca7
/attn_1/Reshape_1_output_0: 3ce1c599
/attn_1/MatMul_output_0: 3f382c2d
/attn_1/Constant_4_output_0_output: 3a010a14
ONNXTRT_Broadcast_619_output: 3a010a14
/attn_1/Mul_1_output_0: 3d382c2d
/attn_1/Softmax_output: 3b8c769a
/attn_1/Softmax_output_0: 3b8c769a
ONNXTRT_Broadcast_1134_output: 3c7e5164
ONNXTRT_Broadcast_1136_output: 3b0eb810
/attn_1/Reshape_2_output_0: 3cbd23b8
/attn_1/Transpose_1_output_0: 3b8c769a
/attn_1/MatMul_1_output_0: 3c83717e
up.0.block.1.temb_proj.weight_output: 3bbd699f
/block.0/norm1_7/Reshape_1_output_0: 3d6670fe
onnx::Add_1863_output: 3c2b0333
/attn.1/k_1/Conv_output_0: 3d838a96
/attn_1/Reshape_3_output_0: 3c83717e
/attn_1/proj_out/Conv_output_0: 3d83f963
/attn_1/Add_output_0: 3ecdc4b5
/block_2/norm1/Reshape_output_0: 3ecdc4b5
/block_2/norm1/InstanceNormalization_output_0: 3d085199
/block.1_7/Unsqueeze_1_output_0: 3e2b5186
/block.1_7/Add_output_0: 3e887b4d
/block_2/norm1/Reshape_1_output_0: 3d085199
onnx::Mul_1824_output: 3c317775
ONNXTRT_Broadcast_636_output: 3c317775
/block_2/norm1/Mul_output_0: 3d105e05
onnx::Add_1825_output: 3bd6c62f
ONNXTRT_Broadcast_638_output: 3bd6c62f
/block_2/norm1/Add_output_0: 3d20b612
/block_2/Sigmoid_output_0: 3bf9106d
/block_2/Mul_output_0: 3c8f96d4
/block_2/conv1/Conv_output_0: 3e072009
mid.block_2.temb_proj.weight_output: 3b61b0fe
/block_2/temb_proj/Gemm_output: 3cedda7a
ONNXTRT_Broadcast_640_output: 3b0c3014
/block_2/temb_proj/Gemm_output_0: 3cf0f132
/block.2/norm1_2/Mul_output_0: 3d7aac36
/block.0_6/Mul_1_output_0: 3ca4b052
/attn.2/v/Conv_output_0: 3dc3419d
ONNXTRT_Broadcast_880_output: 3b5ab97f
/attn.0_1/Softmax_output: 3a64796f
/block.0/norm1_6/Add_output_0: 3d87da2d
/block_2/Unsqueeze_output_0: 3cf0f132
/block.0/conv1_5/Conv_output_0: 3ec3da3f
onnx::Mul_1854_output: 3c51cef7
/attn.0_1/Reshape_2_output_0: 3d7f2e3a
onnx::Mul_1849_output: 3c5eda69
/block_2/Unsqueeze_1_output_0: 3cf0f132
/block_2/Add_output_0: 3e3aecb6
/block_2/norm2/Reshape_output_0: 3e3aecb6
/block_2/norm2/InstanceNormalization_output_0: 3d12a22c
/attn.1/norm_1/Mul_output_0: 3c9492f6
/block.0/temb_proj_6/Gemm_output_0: 3dbc6516
/block_2/norm2/Reshape_1_output_0: 3d12a22c
onnx::Mul_1826_output: 3c9609b0
ONNXTRT_Broadcast_666_output: 3c9609b0
/block_2/norm2/Mul_output_0: 3d7c9f27
onnx::Add_1827_output: 3c17a43a
ONNXTRT_Broadcast_668_output: 3c17a43a
/block_2/norm2/Add_output_0: 3d89b197
/block_2/Sigmoid_1_output_0: 3bffd9f6
/block_2/Mul_1_output_0: 3cc1af34
/block_2/conv2/Conv_output_0: 3e13e399
/block_2/Add_1_output_0: 3eea9034
/Concat_1_output_0: 3eea9b39
/block.0/norm1_4/Reshape_output_0: 3eea9b39
/block.0/norm1_4/InstanceNormalization_output_0: 3d026651
/block.1/norm2_7/Reshape_output_0: 3e887b4d
/block.0/norm1_4/Reshape_1_output_0: 3d026651
onnx::Mul_1828_output: 3c500bf2
ONNXTRT_Broadcast_676_output: 3c500bf2
/block.0/norm1_4/Mul_output_0: 3d1bfa77
onnx::Add_1829_output: 3bfbc1fa
ONNXTRT_Broadcast_678_output: 3bfbc1fa
/block.0/norm1_4/Add_output_0: 3d2536aa
/block.0_4/Sigmoid_output_0: 3bff6a32
/block.0_4/Mul_output_0: 3c998bda
/block.0/conv1_4/Conv_output_0: 3e484650
up.3.block.0.temb_proj.weight_output: 3b5318a4
/block.0/temb_proj_4/Gemm_output: 3ca948fe
ONNXTRT_Broadcast_680_output: 3ab0d687
/block.0/temb_proj_4/Gemm_output_0: 3cb1266f
/attn.0/v_1/Conv_output_0: 3d7f2e3a
/attn.0_1/MatMul_output_0: 3fd05c99
/Concat_5_output_0: 3ed65488
/block.0/norm2_5/InstanceNormalization_output_0: 3d2ba5e2
/block.0/nin_shortcut_2/Conv_output_0: 3e6a4d7c
/block.0_4/Unsqueeze_output_0: 3cb1266f
onnx::Add_1865_output: 3b662a76
/block.2_3/Sigmoid_output_0: 3bfd8996
/block.0/norm2_5/Mul_output_0: 3dbd0809
/block.0_5/Add_output_0: 3ed4a025
/attn.1/v_1/Conv_output_0: 3db8a2aa
/block.0_4/Unsqueeze_1_output_0: 3cb1266f
/block.0_4/Add_output_0: 3e4063e9
/block.0/norm2_4/Reshape_output_0: 3e4063e9
/block.0/norm2_4/InstanceNormalization_output_0: 3cf1a973
/block.0/norm2_4/Reshape_1_output_0: 3cf1a973
onnx::Mul_1830_output: 3ca41246
ONNXTRT_Broadcast_706_output: 3ca41246
/block.0/norm2_4/Mul_output_0: 3d7c33a5
onnx::Add_1831_output: 3c2ca880
ONNXTRT_Broadcast_708_output: 3c2ca880
/block.0/norm2_4/Add_output_0: 3d8228bf
/block.0_4/Sigmoid_1_output_0: 3c002854
/block.0_4/Mul_1_output_0: 3cffb5d3
/block.0/conv2_4/Conv_output_0: 3e81a7df
/block.0/nin_shortcut_1/Conv_output_0: 3eb41c6d
/block.0_4/Add_1_output_0: 3f084285
/Concat_2_output_0: 3f084285
/block.1/norm1_4/Reshape_output_0: 3f084285
/block.1/norm1_4/InstanceNormalization_output_0: 3d1bcaed
/block.1/norm2_7/InstanceNormalization_output_0: 3d1ebf52
/block.1/norm1_4/Reshape_1_output_0: 3d1bcaed
onnx::Mul_1832_output: 3c29e34d
ONNXTRT_Broadcast_716_output: 3c29e34d
/block.1/norm1_4/Mul_output_0: 3d44ce71
onnx::Add_1833_output: 3c27070c
ONNXTRT_Broadcast_718_output: 3c27070c
/block.1/norm1_4/Add_output_0: 3d1cb7e8
/block.1_4/Sigmoid_output_0: 3bff24ef
/block.1_4/Mul_output_0: 3c876ff8
/block.1/conv1_4/Conv_output_0: 3e4bc8d8
up.3.block.1.temb_proj.weight_output: 3b6c8829
/block.1/temb_proj_4/Gemm_output: 3cfb226b
ONNXTRT_Broadcast_720_output: 3b13ae5f
/block.1/temb_proj_4/Gemm_output_0: 3d06701b
/block.2/temb_proj_1/Gemm_output: 3d58e028
/block.0/norm2_6/Add_output_0: 3d9571ef
/block.2/norm1_1/InstanceNormalization_output_0: 3d3b9f48
/attn.2/norm/Mul_output_0: 3ca80df3
onnx::Add_1855_output: 3c8cc653
/block.1_4/Unsqueeze_output_0: 3d06701b
/block.2_1/Add_1_output_0: 3e371e8e
/attn.2/Add_output_0: 3f36e2fc
/attn.1/q_1/Conv_output_0: 3d8d2ed8
/attn.1/norm_1/InstanceNormalization_output_0: 3d21736b
/block.1_4/Unsqueeze_1_output_0: 3d06701b
/block.1_4/Add_output_0: 3e382d9e
/block.1/norm2_4/Reshape_output_0: 3e382d9e
/block.1/norm2_4/InstanceNormalization_output_0: 3d094be4
/block.1_5/Unsqueeze_1_output_0: 3d5362b4
/block.2/conv1_1/Conv_output_0: 3f48eba9
/block.1/norm2_4/Reshape_1_output_0: 3d094be4
onnx::Mul_1834_output: 3c9fa8d8
ONNXTRT_Broadcast_746_output: 3c9fa8d8
/block.1/norm2_4/Mul_output_0: 3d8487b0
onnx::Add_1835_output: 3c536416
ONNXTRT_Broadcast_748_output: 3c536416
/block.1/norm2_4/Add_output_0: 3d9d5945
/block.1_4/Sigmoid_1_output_0: 3c080308
/block.1_4/Mul_1_output_0: 3d027358
/block.1/conv2_4/Conv_output_0: 3ee184d3
/block.1/nin_shortcut/Conv_output_0: 3e864c5d
/block.1_4/Add_1_output_0: 3ee2b796
/Concat_3_output_0: 3ec31935
/block.2/norm1/Reshape_output_0: 3ec31935
/block.2/norm1/InstanceNormalization_output_0: 3d15346d
/block.1/norm2_7/Reshape_1_output_0: 3d1ebf52
onnx::Mul_1879_output: 3ccf5034
/block.2/norm1/Reshape_1_output_0: 3d15346d
onnx::Mul_1836_output: 3c300013
ONNXTRT_Broadcast_756_output: 3c300013
/block.2/norm1/Mul_output_0: 3d2fe14f
onnx::Add_1837_output: 3c14004b
ONNXTRT_Broadcast_758_output: 3c14004b
/block.2/norm1/Add_output_0: 3d45d41d
/block.2/Sigmoid_output_0: 3c00f71e
/block.2/Mul_output_0: 3ca4da79
/block.2/conv1/Conv_output_0: 3e49f1a4
up.3.block.2.temb_proj.weight_output: 3b9efbf7
/block.2/temb_proj/Gemm_output: 3d3506ca
ONNXTRT_Broadcast_760_output: 3b3de3f9
/block.2/temb_proj/Gemm_output_0: 3d40f766
/attn.0_1/Reshape_1_output_0: 3d3a7546
ONNXTRT_Broadcast_948_output: 3c25d518
/block.0_6/Sigmoid_1_output_0: 3c002e53
/block.1_7/Add_1_output_0: 400515a3
/attn.0_1/Mul_1_output_0: 3dd05c99
/block.0/norm1_6/Mul_output_0: 3d5f6dab
/block.2/Unsqueeze_output_0: 3d40f766
onnx::Mul_1881_output: 3c408182
/block.2/norm2_3/Reshape_1_output_0: 3d540d46
/attn.2/Softmax_output_0: 3a3bfa1c
ONNXTRT_Broadcast_956_output: 3b8adbd9
/block.0/norm2_7/Add_output_0: 3daf6add
/block.2_3/Sigmoid_1_output_0: 3c010943
/block.2/Unsqueeze_1_output_0: 3d40f766
/block.2/Add_output_0: 3e405432
/block.2/norm2/Reshape_output_0: 3e405432
/block.2/norm2/InstanceNormalization_output_0: 3ce65eab
ONNXTRT_Broadcast_1202_output: 3ccf5034
/block.1/norm2_7/Mul_output_0: 3d9f55c6
/block.2/norm2/Reshape_1_output_0: 3ce65eab
onnx::Mul_1838_output: 3c8deb7d
ONNXTRT_Broadcast_786_output: 3c8deb7d
/block.2/norm2/Mul_output_0: 3d486e0c
onnx::Add_1839_output: 3c2cb258
ONNXTRT_Broadcast_788_output: 3c2cb258
/block.2/norm2/Add_output_0: 3d888c0f
/block.2/Sigmoid_1_output_0: 3bfe7293
/block.2/Mul_1_output_0: 3cd11645
/block.2/conv2/Conv_output_0: 3e78f303
/block.2/nin_shortcut/Conv_output_0: 3e2e544f
/block.2/Add_1_output_0: 3e91a587
