TRT-100100-EntropyCalibration2
latent: 3d0b22de
up.3.block.2.conv2.bias_output: 3affdf28
up.3.block.2.nin_shortcut.bias: 3affdf28
up.3.block.2.conv1.bias_output: 3b3de3f9
up.3.block.2.temb_proj.bias: 3b3de3f9
up.3.block.1.conv2.bias_output: 3b029f16
up.3.block.1.nin_shortcut.bias: 3b029f16
up.3.block.1.conv1.bias_output: 3b13ae5f
up.3.block.1.temb_proj.bias: 3b13ae5f
up.3.block.0.conv2.bias_output: 3aa43a93
up.3.block.0.nin_shortcut.bias: 3aa43a93
up.3.block.0.conv1.bias_output: 3ab0d687
up.3.block.0.temb_proj.bias: 3ab0d687
up.2.block.2.conv2.bias_output: 3b633f03
up.2.block.2.nin_shortcut.bias: 3b633f03
up.2.block.2.conv1.bias_output: 3b5ab97f
up.2.block.2.temb_proj.bias: 3b5ab97f
up.2.block.1.conv2.bias_output: 3b054290
up.2.block.1.nin_shortcut.bias: 3b054290
up.2.block.1.conv1.bias_output: 3b58d5b4
up.2.block.1.temb_proj.bias: 3b58d5b4
up.2.block.0.conv2.bias_output: 3b14a478
up.2.block.0.nin_shortcut.bias: 3b14a478
up.2.block.0.conv1.bias_output: 3b1346a2
up.2.block.0.temb_proj.bias: 3b1346a2
up.1.block.2.conv2.bias_output: 3bb2fa3f
up.1.block.2.nin_shortcut.bias: 3bb2fa3f
up.1.block.2.conv1.bias_output: 3b7a7421
up.1.block.2.temb_proj.bias: 3b7a7421
up.1.block.1.conv2.bias_output: 3b5343da
up.1.block.1.nin_shortcut.bias: 3b5343da
up.1.block.1.conv1.bias_output: 3b6b2bf4
up.1.block.1.temb_proj.bias: 3b6b2bf4
up.1.block.0.conv2.bias_output: 3bb6a56f
up.1.block.0.nin_shortcut.bias: 3bb6a56f
up.1.block.0.conv1.bias_output: 3b7bdd87
up.1.block.0.temb_proj.bias: 3b7bdd87
up.0.block.2.conv2.bias_output: 3b876b74
up.0.block.2.nin_shortcut.bias: 3b876b74
up.0.block.2.conv1.bias_output: 3af79513
up.0.block.2.temb_proj.bias: 3af79513
up.0.block.1.conv2.bias_output: 3b97e6dc
up.0.block.1.nin_shortcut.bias: 3b97e6dc
up.0.block.1.conv1.bias_output: 3aeff97d
up.0.block.1.temb_proj.bias: 3aeff97d
up.0.block.0.conv2.bias_output: 3bbf68ef
up.0.block.0.nin_shortcut.bias: 3bbf68ef
up.0.block.0.conv1.bias_output: 3b0eb810
up.0.block.0.temb_proj.bias: 3b0eb810
mid.block_2.conv1.bias_output: 3b0c3014
mid.block_2.temb_proj.bias: 3b0c3014
mid.block_1.conv1.bias_output: 3ad8663b
mid.block_1.temb_proj.bias: 3ad8663b
down.3.block.1.conv1.bias_output: 3ab314d2
down.3.block.1.temb_proj.bias: 3ab314d2
down.3.block.0.conv1.bias_output: 3aa58dd5
down.3.block.0.temb_proj.bias: 3aa58dd5
down.2.block.1.conv1.bias_output: 3af79f61
down.2.block.1.temb_proj.bias: 3af79f61
down.2.block.0.conv1.bias_output: 3b0a9250
down.2.block.0.temb_proj.bias: 3b0a9250
down.1.block.1.conv1.bias_output: 3b5c3af6
down.1.block.1.temb_proj.bias: 3b5c3af6
down.1.block.0.conv2.bias_output: 3ba664ff
down.1.block.0.nin_shortcut.bias: 3ba664ff
down.1.block.0.conv1.bias_output: 3b815865
down.1.block.0.temb_proj.bias: 3b815865
down.0.block.1.conv1.bias_output: 3b7bbe93
down.0.block.1.temb_proj.bias: 3b7bbe93
down.0.block.0.conv1.bias_output: 3bbee7a3
down.0.block.0.temb_proj.bias: 3bbee7a3
/Cast_output_0: 41377a55
/block.1_7/Mul_1_output_0: 3d11099c
ONNXTRT_Broadcast_1132_output: 3c584f4b
/block.2/norm2_3/Reshape_1_output_0: 3d479fb2
/block.1_5/Add_output_0: 3f2ff1aa
/block.2/norm1_2/Mul_output_0: 3d7e767f
/attn.0_1/Reshape_2_output_0: 3d8188de
/Unsqueeze_output_0: 41377a55
/Constant_1_output_0_output: 3c010a14
/Mul_output_0: 40b785cc
/Sin_output_0: 3c02f5d4
/Cos_output_0: 3c11ab9c
/Concat_output_0: 3c053a5d
temb.dense.0.weight_output: 3b8c4b1a
/dense.0/Gemm_output: 3d5139c5
temb.dense.0.bias_output: 3b0a72d1
ONNXTRT_Broadcast_output: 3b0a72d1
/dense.0/Gemm_output_0: 3d5a6564
/Sigmoid_output_0: 3c016373
/Mul_1_output_0: 3c386ece
temb.dense.1.weight_output: 3b29c707
/dense.1/Gemm_output: 3d551435
temb.dense.1.bias_output: 3acf3dfa
ONNXTRT_Broadcast_4_output: 3acf3dfa
/dense.1/Gemm_output_0: 3d5743aa
/conv_in/Conv_output_0: 3d8a7f19
/block.0/norm1/Reshape_output_0: 3d8a7f19
/block.0/norm1/InstanceNormalization_output_0: 3d2b42b0
/block.0/norm2_5/Reshape_output_0: 3f24f654
/block.2/norm2_1/Reshape_1_output_0: 3d7e14b6
/block.0/norm1/Reshape_1_output_0: 3d2b42b0
onnx::Mul_1767_output: 3c989f5c
ONNXTRT_Broadcast_11_output: 3c989f5c
/block.0/norm1/Mul_output_0: 3d363d4a
onnx::Add_1768_output: 3b963415
ONNXTRT_Broadcast_13_output: 3b963415
/block.0/norm1/Add_output_0: 3d3624ce
/block.0/Sigmoid_output_0: 3c00d5e6
/block.0/Mul_output_0: 3cb18bf2
/block.0/conv1/Conv_output_0: 3f060b91
/block.0/Sigmoid_1_output_0: 3c01b35a
/block.0/Mul_1_output_0: 3c663bbe
down.0.block.0.temb_proj.weight_output: 3c3f7b44
/block.0/temb_proj/Gemm_output: 3f745c1a
ONNXTRT_Broadcast_15_output: 3bbee7a3
/block.0/temb_proj/Gemm_output_0: 3f6977c8
onnx::Mul_1868_output: 3c893e8e
onnx::Mul_1862_output: 3c9c9ebe
/block.0/norm2_6/Mul_output_0: 3d8fd5b8
/attn.1/norm_1/Reshape_1_output_0: 3d473c36
/block.2_3/Sigmoid_1_output_0: 3c038632
/block.0/Unsqueeze_output_0: 3f6977c8
/block.1/norm2_5/Add_output_0: 3db9172e
/block.2/norm1_2/Add_output_0: 3d75e2e8
/block.2/norm2_2/InstanceNormalization_output_0: 3d53dfe5
ONNXTRT_Broadcast_906_output: 3c8198d4
/block.2/norm2_1/InstanceNormalization_output_0: 3d7e14b6
/block.0/Unsqueeze_1_output_0: 3f6977c8
/block.0/Add_output_0: 3f9287fc
/block.0/norm2/Reshape_output_0: 3f9287fc
/block.0/norm2/InstanceNormalization_output_0: 3d53a796
/block.1/norm2_5/Reshape_1_output_0: 3d556264
onnx::Add_1848_output: 3c477af5
/block.0/norm2/Reshape_1_output_0: 3d53a796
onnx::Mul_1769_output: 3cae0ab5
ONNXTRT_Broadcast_41_output: 3cae0ab5
/block.0/norm2/Mul_output_0: 3d785c74
onnx::Add_1770_output: 3c0dc603
ONNXTRT_Broadcast_43_output: 3c0dc603
/block.0/norm2/Add_output_0: 3d573e73
/block.0/Sigmoid_2_output_0: 3bf22caa
/block.0/Mul_2_output_0: 3c4922b2
/block.0/conv2/Conv_output_0: 3d988c69
/block.0/Add_1_output_0: 3dc8b602
/block.1/norm1/Reshape_output_0: 3dc8b602
/block.1/norm1/InstanceNormalization_output_0: 3d2cc2d0
/block.1/norm2_5/InstanceNormalization_output_0: 3d556264
/block.2_3/Sigmoid_output_0: 3c009588
/block.1/norm1/Reshape_1_output_0: 3d2cc2d0
onnx::Mul_1771_output: 3cac897e
ONNXTRT_Broadcast_51_output: 3cac897e
/block.1/norm1/Mul_output_0: 3d3d5939
onnx::Add_1772_output: 3bec6095
ONNXTRT_Broadcast_53_output: 3bec6095
/block.1/norm1/Add_output_0: 3d4c1964
/block.1/Sigmoid_output_0: 3c01252a
/block.1/Mul_output_0: 3cc22e48
/block.1/conv1/Conv_output_0: 3e94b93f
down.0.block.1.temb_proj.weight_output: 3c094cbd
/block.1/temb_proj/Gemm_output: 3f43ed6f
ONNXTRT_Broadcast_55_output: 3b7bbe93
/block.1/temb_proj/Gemm_output_0: 3f43080f
onnx::Mul_1858_output: 3b8adbd9
/attn.1/norm_1/Mul_output_0: 3ca5e860
/block.2/norm1_1/Add_output_0: 3d834c81
ONNXTRT_Broadcast_1212_output: 3c408182
/attn.0_1/MatMul_output_0: 3fb779b3
/block.1/Unsqueeze_output_0: 3f43080f
/block.2_1/Mul_1_output_0: 3c91a0c4
/block.2/norm2_3/Reshape_output_0: 3e957483
/block.0/norm1_6/InstanceNormalization_output_0: 3d7d2e62
ONNXTRT_Broadcast_1115_output: 3a010a14
/block.1/norm1_6/InstanceNormalization_output_0: 3d542942
onnx::Mul_1849_output: 3c5eda69
/block.1/Unsqueeze_1_output_0: 3f43080f
/block.1/Add_output_0: 3f540a35
/block.1/norm2/Reshape_output_0: 3f540a35
/block.1/norm2/InstanceNormalization_output_0: 3d366a0e
/block.1/norm2/Reshape_1_output_0: 3d366a0e
onnx::Mul_1773_output: 3c9603f4
ONNXTRT_Broadcast_81_output: 3c9603f4
/block.1/norm2/Mul_output_0: 3d7c0905
onnx::Add_1774_output: 3c1e3524
ONNXTRT_Broadcast_83_output: 3c1e3524
/block.1/norm2/Add_output_0: 3d602b4d
/block.1/Sigmoid_1_output_0: 3c005bf5
/block.1/Mul_1_output_0: 3cb1c26c
/block.1/conv2/Conv_output_0: 3dd1fe8e
/block.1/Add_1_output_0: 3dcd440f
/block.2/conv1_2/Conv_output_0: 3f097a5f
/block.2/norm2_3/InstanceNormalization_output_0: 3d479fb2
/block.2/norm1_2/InstanceNormalization_output_0: 3d840763
onnx::Mul_1883_output: 3cb709b7
/upsample_2/Resize_output_0: 3f54784c
/attn.1_1/MatMul_1_output_0: 3d909d12
/attn.2/Constant_4_output_0_output: 3a010a14
/block.2/norm1_2/Reshape_output_0: 3efb0f70
ONNXTRT_Broadcast_1090_output: 3c893e8e
ONNXTRT_Broadcast_1018_output: 3c9c9ebe
onnx::Add_1857_output: 3c25d518
onnx::Mul_1864_output: 3b9b55e6
/block.0_6/Unsqueeze_1_output_0: 3ed22d5b
ONNXTRT_Broadcast_1100_output: 3ba4966c
/Mul_2_output_0: 3c498119
/block.0_7/Add_output_0: 3ecb74e0
/block.2_2/Add_1_output_0: 3f791e16
/block.0/norm1_6/Reshape_1_output_0: 3d7d2e62
/block.2_1/Sigmoid_1_output_0: 3c0e4d72
ONNXTRT_Broadcast_990_output: 3c3e32ea
/block.1/norm2_6/Reshape_output_0: 3f650703
/block.2_1/Mul_output_0: 3cd16bc6
/block.0_6/Sigmoid_1_output_0: 3c004204
onnx::Mul_1860_output: 3c5c58e2
/attn.0_1/Transpose_output_0: 3d4522c3
/block.1/nin_shortcut_2/Conv_output_0: 3f0c9c8f
ONNXTRT_Broadcast_1062_output: 3bd6d1bb
/norm_out/Add_output_0: 3dc4b2b1
/attn.1_1/Softmax_output: 3a3991cd
/attn.0_1/Reshape_1_output_0: 3d5f8c45
/block.1_6/Mul_1_output_0: 3cc22ae4
/block.2/norm1_3/Reshape_1_output_0: 3d4017a7
/block.2_3/Unsqueeze_output_0: 3e8efbf6
/block.2/temb_proj_3/Gemm_output: 3e919c3c
/block.0_5/Mul_output_0: 3cc16093
/attn.1_1/Reshape_2_output_0: 3dae04b3
/Concat_9_output_0: 3efb0f70
/block.1_6/Sigmoid_1_output_0: 3c02e96e
/attn.2/Reshape_2_output_0: 3dc768ef
onnx::Add_1871_output: 3b8f3652
onnx::Add_1859_output: 3b669c26
/block.0/norm2_6/Add_output_0: 3d97bcb0
/block.2_2/Unsqueeze_1_output_0: 3f0fece8
/block.1_6/Add_output_0: 3f650703
/attn.2/norm/Add_output_0: 3cdeec15
/block.1/norm1_6/Mul_output_0: 3d6d219f
/block.1/norm2_5/Reshape_output_0: 3f2ff1aa
/block.1_5/Unsqueeze_1_output_0: 3e885998
/block.2/temb_proj_3/Gemm_output_0: 3e8efbf6
/downsample/Pad_output_0: 3dcd440f
/downsample/conv/Conv_output_0: 3e767676
/block.0/norm1_1/Reshape_output_0: 3e767676
/block.0/norm1_1/InstanceNormalization_output_0: 3d5146dd
/block.0_6/Mul_1_output_0: 3c90ab95
/block.0/norm1_1/Reshape_1_output_0: 3d5146dd
onnx::Mul_1780_output: 3c7af8b4
ONNXTRT_Broadcast_146_output: 3c7af8b4
/block.0/norm1_1/Mul_output_0: 3d4f74b1
onnx::Add_1781_output: 3bb9217b
ONNXTRT_Broadcast_148_output: 3bb9217b
/block.0/norm1_1/Add_output_0: 3d5b0713
/block.0_1/Sigmoid_output_0: 3c046911
/block.0_1/Mul_output_0: 3d109f20
/block.0/conv1_1/Conv_output_0: 3f3caa87
down.1.block.0.temb_proj.weight_output: 3c6699b7
/block.0/temb_proj_1/Gemm_output: 3fa5713f
ONNXTRT_Broadcast_150_output: 3b815865
/block.0/temb_proj_1/Gemm_output_0: 3fa8f031
/block.0/norm2_7/Mul_output_0: 3da357b1
up.0.block.2.temb_proj.weight_output: 3ba266cc
/block.1_7/Add_1_output_0: 40048d55
/attn.0_1/MatMul_1_output_0: 3d43d769
/block.0_7/Sigmoid_output_0: 3c004978
/block.2/nin_shortcut_2/Conv_output_0: 3f6c169a
/block.0_1/Unsqueeze_output_0: 3fa8f031
/block.1/norm1_6/Reshape_1_output_0: 3d542942
/Concat_12_output_0: 3f960b8f
/block.2/temb_proj_2/Gemm_output_0: 3f0fece8
onnx::Add_1852_output: 3c0a9422
/attn.2/Add_output_0: 3f54784c
/Sigmoid_1_output_0: 3be16b25
/block.0_1/Unsqueeze_1_output_0: 3fa8f031
/block.0_1/Add_output_0: 3fa88f5c
/block.0/norm2_1/Reshape_output_0: 3fa88f5c
/block.0/norm2_1/InstanceNormalization_output_0: 3d475a14
/attn.1_1/Transpose_1_output_0: 3a3991cd
/attn.2/norm/InstanceNormalization_output_0: 3d4d551a
/block.0/norm2_1/Reshape_1_output_0: 3d475a14
onnx::Mul_1782_output: 3c5cfaba
ONNXTRT_Broadcast_176_output: 3c5cfaba
/block.0/norm2_1/Mul_output_0: 3d5ce4c1
onnx::Add_1783_output: 3b8cf18b
ONNXTRT_Broadcast_178_output: 3b8cf18b
/block.0/norm2_1/Add_output_0: 3d38d30f
/block.0_1/Sigmoid_1_output_0: 3be7f422
/block.0_1/Mul_1_output_0: 3c0c6dae
/block.0/conv2_1/Conv_output_0: 3daace92
/block.0/nin_shortcut/Conv_output_0: 3db12c0a
/block.0_1/Add_1_output_0: 3de25495
/attn.0/norm/Reshape_output_0: 3de25495
/attn.0/norm/InstanceNormalization_output_0: 3d410a38
/attn.0/v_1/Conv_output_0: 3d8188de
/block.1/temb_proj_5/Gemm_output_0: 3e885998
/attn.0/norm/Reshape_1_output_0: 3d410a38
onnx::Mul_1784_output: 3b8b92a0
ONNXTRT_Broadcast_186_output: 3b8b92a0
/attn.0/norm/Mul_output_0: 3c8e74f3
onnx::Add_1785_output: 3bb448ab
ONNXTRT_Broadcast_188_output: 3bb448ab
/attn.0/norm/Add_output_0: 3c85b486
/attn.0/q/Conv_output_0: 3d2a0f68
/attn.0/k/Conv_output_0: 3d17d1ff
/attn.0/v/Conv_output_0: 3d1b60ba
/block.0_6/Mul_output_0: 3cb34db4
/attn.1_1/MatMul_output_0: 3fb58493
/block.1_6/Unsqueeze_output_0: 3f28b1f3
/block.2/norm2_3/Add_output_0: 3d9f1711
/attn.2/Softmax_output_0: 39b70e63
/block.1_5/Unsqueeze_output_0: 3e885998
/block.1_6/Add_1_output_0: 3f33db2c
ONNXTRT_Broadcast_1092_output: 3bfc744c
/attn.2/q/Conv_output_0: 3d4db153
/block.0/norm1_7/Mul_output_0: 3d40993f
/block.2_3/Add_1_output_0: 40c5acf1
/Concat_10_output_0: 3fad50b7
ONNXTRT_Broadcast_1214_output: 3bc99663
ONNXTRT_Broadcast_840_output: 3b58d5b4
/block.1/temb_proj_5/Gemm_output: 3e6400d7
ONNXTRT_Broadcast_836_output: 3c4dd28d
onnx::Add_1880_output: 3c3f43a0
/block.1/conv1_5/Conv_output_0: 3f131d83
onnx::Mul_1845_output: 3c4dd28d
/block.1/norm1_5/InstanceNormalization_output_0: 3d616d78
/attn.0/Reshape_output_0: 3d2a0f68
/attn.0/Transpose_output_0: 3d2a0f68
/attn.0/Reshape_1_output_0: 3d17d1ff
/attn.0/MatMul_output_0: 3f8e004d
/attn.0/Constant_4_output_0_output: 3a010a14
ONNXTRT_Broadcast_201_output: 3a010a14
/attn.0/Mul_1_output_0: 3d8e004d
/attn.0/Softmax_output: 3a18bcc8
/attn.0/Softmax_output_0: 3a18bcc8
/block.2/nin_shortcut_1/Conv_output_0: 3e0c7250
/block.2_1/Unsqueeze_1_output_0: 3e988770
/attn.0/Reshape_2_output_0: 3d1b60ba
/attn.0/Transpose_1_output_0: 3a18bcc8
/attn.0/MatMul_1_output_0: 3ca2c539
/block.1_5/Sigmoid_1_output_0: 3c0a961e
/block.1/norm1_5/Add_output_0: 3d8ba8f2
/block.1/norm1_5/Mul_output_0: 3d89c278
/block.2_2/Mul_1_output_0: 3cd1465b
ONNXTRT_Broadcast_1204_output: 3c3f43a0
/attn.0/Reshape_3_output_0: 3ca2c539
/attn.0/proj_out/Conv_output_0: 3d9dcfcf
/attn.0/Add_output_0: 3dd32a32
/block.1/norm1_1/Reshape_output_0: 3dd32a32
/block.1/norm1_1/InstanceNormalization_output_0: 3d4ef8bc
/block.1/norm2_7/Add_output_0: 3da36b51
/block.1/norm1_1/Reshape_1_output_0: 3d4ef8bc
onnx::Mul_1786_output: 3c79689b
ONNXTRT_Broadcast_218_output: 3c79689b
/block.1/norm1_1/Mul_output_0: 3d6b5fc6
onnx::Add_1787_output: 3bc111af
ONNXTRT_Broadcast_220_output: 3bc111af
/block.1/norm1_1/Add_output_0: 3d74eb76
/block.1_1/Sigmoid_output_0: 3c02bf58
/block.1_1/Mul_output_0: 3cc10dc5
/block.1/conv1_1/Conv_output_0: 3ed8e7eb
down.1.block.1.temb_proj.weight_output: 3be84944
/block.1/temb_proj_1/Gemm_output: 3fab2b5e
ONNXTRT_Broadcast_222_output: 3b5c3af6
/block.1/temb_proj_1/Gemm_output_0: 3fb63ffe
/attn.1/proj_out_1/Conv_output_0: 3ec8aa17
onnx::Mul_1856_output: 3c9b19f6
/attn.2/Transpose_output_0: 3d4db153
onnx::Add_1869_output: 3bfc744c
/block.1_1/Unsqueeze_output_0: 3fb63ffe
/Concat_7_output_0: 3ecced2c
onnx::Mul_1851_output: 3c8198d4
/block.2_1/Unsqueeze_output_0: 3e988770
/upsample/conv/Conv_output_0: 3f96bf04
/block.1/conv2_7/Conv_output_0: 3edf95ac
/block.1_1/Unsqueeze_1_output_0: 3fb63ffe
/block.1_1/Add_output_0: 3fbdaa64
/block.1/norm2_1/Reshape_output_0: 3fbdaa64
/block.1/norm2_1/InstanceNormalization_output_0: 3d26c367
/block.1/norm2_1/Reshape_1_output_0: 3d26c367
onnx::Mul_1788_output: 3c6cbc2f
ONNXTRT_Broadcast_248_output: 3c6cbc2f
/block.1/norm2_1/Mul_output_0: 3d55af01
onnx::Add_1789_output: 3ba3c275
ONNXTRT_Broadcast_250_output: 3ba3c275
/block.1/norm2_1/Add_output_0: 3d5162e5
/block.1_1/Sigmoid_1_output_0: 3bdee9a0
/block.1_1/Mul_1_output_0: 3c3912e0
/block.1/conv2_1/Conv_output_0: 3d36b44c
/block.1_1/Add_1_output_0: 3de123f9
/attn.1/norm/Reshape_output_0: 3de123f9
/attn.1/norm/InstanceNormalization_output_0: 3d343d38
/block.1/norm1_5/Reshape_output_0: 3ee6b396
/attn.1/norm/Reshape_1_output_0: 3d343d38
onnx::Mul_1790_output: 3b73f83d
ONNXTRT_Broadcast_258_output: 3b73f83d
/attn.1/norm/Mul_output_0: 3c8789ba
onnx::Add_1791_output: 3ba90873
ONNXTRT_Broadcast_260_output: 3ba90873
/attn.1/norm/Add_output_0: 3c80c57f
/attn.1/q/Conv_output_0: 3d320f05
/attn.1/k/Conv_output_0: 3d2e584c
/attn.1/v/Conv_output_0: 3d01dc2f
/block.0/norm1_6/Add_output_0: 3d91e079
/block.0/conv2_5/Conv_output_0: 3ed8824d
/norm_out/Mul_output_0: 3da6a563
/block.2/norm1_3/InstanceNormalization_output_0: 3d4017a7
/block.2/temb_proj_1/Gemm_output_0: 3e988770
/block.2/norm2_2/Reshape_output_0: 3f3900c7
/Concat_6_output_0: 3e8e59ba
/Concat_5_output_0: 3ee6b396
/block.0_5/Mul_1_output_0: 3ce78717
/block.2_2/Unsqueeze_output_0: 3f0fece8
ONNXTRT_Broadcast_828_output: 3c6fcbd8
/block.0/nin_shortcut_2/Conv_output_0: 3e869082
/block.0/norm2_5/Add_output_0: 3daac6f2
/block.0/norm1_7/Add_output_0: 3d4987f3
/attn.0/norm_1/Reshape_output_0: 3f130e2a
/block.0_5/Unsqueeze_1_output_0: 3e2f4262
/block.0/norm2_5/Mul_output_0: 3db4b623
/attn.2/Transpose_1_output_0: 39b70e63
onnx::Mul_1843_output: 3cacafa2
up.1.block.0.temb_proj.weight_output: 3bf8619a
/block.0_7/Mul_output_0: 3cc1e5cc
up.2.block.2.temb_proj.weight_output: 3be40232
/block.1/norm2_7/Mul_output_0: 3d9e0115
/block.0_5/Unsqueeze_output_0: 3e2f4262
/block.2_1/Sigmoid_output_0: 3c1074eb
/attn.1/Reshape_output_0: 3d320f05
/attn.1/Transpose_output_0: 3d320f05
/attn.1/Reshape_1_output_0: 3d2e584c
/attn.1/MatMul_output_0: 3fcaaddb
/attn.1/Constant_4_output_0_output: 3a010a14
ONNXTRT_Broadcast_273_output: 3a010a14
/attn.1/Mul_1_output_0: 3dcaaddb
/attn.1/Softmax_output: 3a8b6f26
/attn.1/Softmax_output_0: 3a8b6f26
/attn.2/v/Conv_output_0: 3dc768ef
/block.0/nin_shortcut_3/Conv_output_0: 3eac57a3
/attn.1/Reshape_2_output_0: 3d01dc2f
/attn.1/Transpose_1_output_0: 3a8b6f26
/attn.1/MatMul_1_output_0: 3cb3f87f
/block.0/norm2_5/InstanceNormalization_output_0: 3d350588
/block.2_3/Unsqueeze_1_output_0: 3e8efbf6
onnx::Add_1867_output: 3bd6d1bb
ONNXTRT_Broadcast_948_output: 3c25d518
/attn.1/Reshape_3_output_0: 3cb3f87f
/attn.1/proj_out/Conv_output_0: 3db80f44
/attn.1/Add_output_0: 3d9f437b
/block.1/temb_proj_6/Gemm_output: 3f18b590
onnx::Mul_1873_output: 3c584f4b
/attn.2/Mul_1_output_0: 3d6ee501
ONNXTRT_Broadcast_1134_output: 3c7e5164
noise_pred: 3d67b0bb
ONNXTRT_Broadcast_916_output: 3c51cef7
/attn.2/proj_out/Conv_output_0: 3ed8e92d
/block.2/norm2_2/Mul_output_0: 3d815626
ONNXTRT_Broadcast_920_output: 3b7bdd87
ONNXTRT_Broadcast_1020_output: 3c2b0333
/block.0/norm1_7/Reshape_1_output_0: 3d8b0bdc
/attn.1/norm_1/Reshape_output_0: 3f33db2c
ONNXTRT_Broadcast_1254_output: 3cb33291
/block.2/conv2_2/Conv_output_0: 3e9bb34e
/attn.2/k/Conv_output_0: 3d4fd509
onnx::Add_1874_output: 3c7e5164
onnx::Mul_1866_output: 3c426c31
/block.0/norm1_7/Reshape_output_0: 3fad50b7
/block.1/norm2_6/InstanceNormalization_output_0: 3d1d000b
ONNXTRT_Broadcast_908_output: 3c0a9422
/attn.0_1/Add_output_0: 3ee98755
/block.0_7/Unsqueeze_1_output_0: 3e9ef7de
/attn.1_1/Constant_4_output_0_output: 3a010a14
/block.0/norm2_6/Reshape_1_output_0: 3d36881c
onnx::Add_1884_output: 3c47e068
/attn.0/norm_1/InstanceNormalization_output_0: 3d363407
/attn.0_1/Mul_1_output_0: 3db779b3
/attn.1/norm_1/Add_output_0: 3ca0dd5a
/block.2/norm1_3/Reshape_output_0: 3f960b8f
/attn.0_1/Constant_4_output_0_output: 3a010a14
onnx::Add_1886_output: 3cb33291
/block.0_6/Unsqueeze_output_0: 3ed22d5b
/block.0/norm2_7/Reshape_1_output_0: 3d1cc8b9
/block.0/temb_proj_6/Gemm_output_0: 3ed22d5b
/block.2/nin_shortcut_3/Conv_output_0: 40aa3f01
/attn.0/norm_1/Add_output_0: 3ca520f6
ONNXTRT_Broadcast_1064_output: 3b7a7421
ONNXTRT_Broadcast_800_output: 3b1346a2
/block.0/temb_proj_5/Gemm_output: 3e280d16
/block.0/conv1_5/Conv_output_0: 3f1159d9
/block.0_5/Sigmoid_output_0: 3c00db4f
ONNXTRT_Broadcast_798_output: 3c40b959
/block.2_2/Mul_output_0: 3d12360b
/block.0/norm1_5/Mul_output_0: 3d535eef
onnx::Mul_1841_output: 3c2a7bec
/block.0/temb_proj_7/Gemm_output: 3eabc783
/block.0/temb_proj_5/Gemm_output_0: 3e2f4262
onnx::Mul_1879_output: 3ccf5034
/downsample_1/Pad_output_0: 3d9f437b
/downsample/conv_1/Conv_output_0: 3e1fecc2
/block.0/norm1_2/Reshape_output_0: 3e1fecc2
/block.0/norm1_2/InstanceNormalization_output_0: 3d3600fb
/block.2_3/Mul_1_output_0: 3d43dc50
/attn.2/Reshape_output_0: 3d4db153
/block.0/norm1_2/Reshape_1_output_0: 3d3600fb
onnx::Mul_1797_output: 3c330a89
ONNXTRT_Broadcast_347_output: 3c330a89
/block.0/norm1_2/Mul_output_0: 3d6cb69e
onnx::Add_1798_output: 3bbf682a
ONNXTRT_Broadcast_349_output: 3bbf682a
/block.0/norm1_2/Add_output_0: 3d44c921
/block.0_2/Sigmoid_output_0: 3c01d061
/block.0_2/Mul_output_0: 3ce82509
/block.0/conv1_2/Conv_output_0: 3f34390b
down.2.block.0.temb_proj.weight_output: 3bb2cf25
/block.0/temb_proj_2/Gemm_output: 3e6f14d8
ONNXTRT_Broadcast_351_output: 3b0a9250
/block.0/temb_proj_2/Gemm_output_0: 3e672787
/block.0/temb_proj_7/Gemm_output_0: 3e9ef7de
/block.1/temb_proj_6/Gemm_output_0: 3f28b1f3
/block.0/norm2_6/InstanceNormalization_output_0: 3d36881c
/block.1_6/Mul_output_0: 3cd51b11
/block.0/temb_proj_6/Gemm_output: 3ef530e6
/block.0_2/Unsqueeze_output_0: 3e672787
/attn.0_1/Reshape_3_output_0: 3d43d769
/block.1/nin_shortcut_3/Conv_output_0: 3ff45955
onnx::Mul_1881_output: 3c408182
ONNXTRT_Broadcast_1244_output: 3c47e068
/block.2/norm1_1/InstanceNormalization_output_0: 3d6480b8
/block.0_2/Unsqueeze_1_output_0: 3e672787
/block.0_2/Add_output_0: 3f5cf71c
/block.0/norm2_2/Reshape_output_0: 3f5cf71c
/block.0/norm2_2/InstanceNormalization_output_0: 3d3d7f65
/block.1/norm2_7/Reshape_1_output_0: 3d2027fd
/block.0/norm1_5/InstanceNormalization_output_0: 3d8745cb
/block.0/norm2_2/Reshape_1_output_0: 3d3d7f65
onnx::Mul_1799_output: 3c453e81
ONNXTRT_Broadcast_377_output: 3c453e81
/block.0/norm2_2/Mul_output_0: 3d5962b2
onnx::Add_1800_output: 3bc83456
ONNXTRT_Broadcast_379_output: 3bc83456
/block.0/norm2_2/Add_output_0: 3d6ef2fb
/block.0_2/Sigmoid_1_output_0: 3c00258e
/block.0_2/Mul_1_output_0: 3c7f5afe
/block.0/conv2_2/Conv_output_0: 3db896be
/block.0_2/Add_1_output_0: 3e0ed0ff
/block.1/norm1_2/Reshape_output_0: 3e0ed0ff
/block.1/norm1_2/InstanceNormalization_output_0: 3d17f960
/block.1/norm1_2/Reshape_1_output_0: 3d17f960
onnx::Mul_1801_output: 3c37c33f
ONNXTRT_Broadcast_387_output: 3c37c33f
/block.1/norm1_2/Mul_output_0: 3d5a2b82
onnx::Add_1802_output: 3bc5e0ca
ONNXTRT_Broadcast_389_output: 3bc5e0ca
/block.1/norm1_2/Add_output_0: 3d51c808
/block.1_2/Sigmoid_output_0: 3c024508
/block.1_2/Mul_output_0: 3cb2a395
/block.1/conv1_2/Conv_output_0: 3edfe79c
down.2.block.1.temb_proj.weight_output: 3bd18b18
/block.1/temb_proj_2/Gemm_output: 3e6bfee9
ONNXTRT_Broadcast_391_output: 3af79f61
/block.1/temb_proj_2/Gemm_output_0: 3e5539a4
onnx::Add_1876_output: 3c375f04
onnx::Mul_1847_output: 3ca1ae87
/block.0/conv1_6/Conv_output_0: 3f17e88e
/attn.1_1/Reshape_1_output_0: 3d54560a
/attn.0/norm_1/Mul_output_0: 3c9de14d
/block.1_2/Unsqueeze_output_0: 3e5539a4
/block.2/norm2_1/Add_output_0: 3dca18fa
ONNXTRT_Broadcast_1242_output: 3cb709b7
/norm_out/InstanceNormalization_output_0: 3d56fa67
/block.1/conv1_6/Conv_output_0: 3eca7758
/block.1_2/Unsqueeze_1_output_0: 3e5539a4
/block.1_2/Add_output_0: 3f0955ee
/block.1/norm2_2/Reshape_output_0: 3f0955ee
/block.1/norm2_2/InstanceNormalization_output_0: 3d426160
/block.0/norm1_5/Reshape_output_0: 3f673275
/block.1/norm2_2/Reshape_1_output_0: 3d426160
onnx::Mul_1803_output: 3c67ade7
ONNXTRT_Broadcast_417_output: 3c67ade7
/block.1/norm2_2/Mul_output_0: 3d442179
onnx::Add_1804_output: 3b8a4834
ONNXTRT_Broadcast_419_output: 3b8a4834
/block.1/norm2_2/Add_output_0: 3d597f60
/block.1_2/Sigmoid_1_output_0: 3bf50ada
/block.1_2/Mul_1_output_0: 3c88ae86
/block.1/conv2_2/Conv_output_0: 3da9acf8
/block.1_2/Add_1_output_0: 3df94a6c
onnx::Add_1850_output: 3c523152
/block.1/conv2_6/Conv_output_0: 3e3ce37e
/attn.2/MatMul_1_output_0: 3d8d35de
/block.2_3/Add_output_0: 3e957483
ONNXTRT_Broadcast_1164_output: 3c375f04
/block.1/norm2_6/Reshape_1_output_0: 3d1d000b
/block.2_1/Add_1_output_0: 3e7cff55
/block.2_1/Add_output_0: 3fba9328
onnx::Add_1882_output: 3bc99663
/attn.2/norm/Reshape_1_output_0: 3d4d551a
onnx::Add_1863_output: 3c2b0333
/block.1_5/Mul_1_output_0: 3c8000fa
/block.1_5/Mul_output_0: 3cd245d3
onnx::Add_1846_output: 3c479295
/block.2_2/Sigmoid_1_output_0: 3c03a2ad
/block.1/norm1_5/Reshape_1_output_0: 3d616d78
/Concat_8_output_0: 3ebcbf4c
/block.2/norm1_2/Reshape_1_output_0: 3d840763
ONNXTRT_Broadcast_988_output: 3c5c58e2
/block.0/conv2_6/Conv_output_0: 3ea501f3
/block.0/conv1_7/Conv_output_0: 3e9b2218
/attn.0_1/Transpose_1_output_0: 3a31b67b
/attn.2/norm/Reshape_output_0: 3f791e16
/block.1_7/Sigmoid_1_output_0: 3c099eb0
up.0.block.0.temb_proj.weight_output: 3bc50fb8
ONNXTRT_Broadcast_1136_output: 3b0eb810
/block.2/norm1_1/Mul_output_0: 3d966310
/block.0/norm2_7/Reshape_output_0: 3ecb74e0
/block.2_2/Sigmoid_output_0: 3c023fea
/block.0/norm1_5/Add_output_0: 3d5b7a36
/attn.1_1/Softmax_output_0: 3a3991cd
ONNXTRT_Broadcast_958_output: 3b669c26
onnx::Mul_1875_output: 3cfa0104
ONNXTRT_Broadcast_992_output: 3b6b2bf4
ONNXTRT_Broadcast_1043_output: 3a010a14
/block.1/norm1_6/Add_output_0: 3d801018
/attn.1_1/Reshape_3_output_0: 3d909d12
/attn.0/norm_1/Reshape_1_output_0: 3d363407
ONNXTRT_Broadcast_946_output: 3c9b19f6
/attn.2/Reshape_1_output_0: 3d4fd509
/block.1/norm2_6/Add_output_0: 3d90d872
/block.0/norm2_7/Add_output_0: 3da2562c
/block.0/norm1_6/Reshape_output_0: 3ecced2c
/block.2/norm2_1/Mul_output_0: 3dbb6233
/block.2/norm2_3/Mul_output_0: 3db4bc6d
/block.2/conv2_1/Conv_output_0: 3e07542a
/upsample/Resize_output_0: 3eb32acb
/block.2/norm1_1/Reshape_1_output_0: 3d6480b8
/downsample_2/Pad_output_0: 3df94a6c
/downsample/conv_2/Conv_output_0: 3f03a93b
/block.0/norm1_3/Reshape_output_0: 3f03a93b
/block.0/norm1_3/InstanceNormalization_output_0: 3d212448
/block.0/norm1_3/Reshape_1_output_0: 3d212448
onnx::Mul_1810_output: 3c180c11
ONNXTRT_Broadcast_484_output: 3c180c11
/block.0/norm1_3/Mul_output_0: 3d2593d1
onnx::Add_1811_output: 3b9d7a34
ONNXTRT_Broadcast_486_output: 3b9d7a34
/block.0/norm1_3/Add_output_0: 3d1209cd
/block.0_3/Sigmoid_output_0: 3bfe9eed
/block.0_3/Mul_output_0: 3cd18bad
/block.0/conv1_3/Conv_output_0: 3e5faec9
down.3.block.0.temb_proj.weight_output: 3b7606f6
/block.0/temb_proj_3/Gemm_output: 3df91a5a
ONNXTRT_Broadcast_488_output: 3aa58dd5
/block.0/temb_proj_3/Gemm_output_0: 3e027683
/attn.1_1/Reshape_output_0: 3d6f7ab4
/attn.0/q_1/Conv_output_0: 3d4522c3
ONNXTRT_Broadcast_971_output: 3a010a14
ONNXTRT_Broadcast_1030_output: 3b662a76
/block.0_3/Unsqueeze_output_0: 3e027683
/attn.2/MatMul_output_0: 3f6ee501
ONNXTRT_Broadcast_1028_output: 3b9b55e6
ONNXTRT_Broadcast_956_output: 3b8adbd9
/block.0_3/Unsqueeze_1_output_0: 3e027683
/block.0_3/Add_output_0: 3e9e15e5
/block.0/norm2_3/Reshape_output_0: 3e9e15e5
/block.0/norm2_3/InstanceNormalization_output_0: 3d14eb33
/block.2/norm1_1/Reshape_output_0: 3e8e59ba
/block.0/norm2_3/Reshape_1_output_0: 3d14eb33
onnx::Mul_1812_output: 3c675914
ONNXTRT_Broadcast_514_output: 3c675914
/block.0/norm2_3/Mul_output_0: 3d89e78f
onnx::Add_1813_output: 3c05cfbf
ONNXTRT_Broadcast_516_output: 3c05cfbf
/block.0/norm2_3/Add_output_0: 3da0f5df
/block.0_3/Sigmoid_1_output_0: 3c0a1442
/block.0_3/Mul_1_output_0: 3cb12401
/block.0/conv2_3/Conv_output_0: 3e247fe9
/block.0_3/Add_1_output_0: 3ecb063f
/block.1/norm1_3/Reshape_output_0: 3ecb063f
/block.1/norm1_3/InstanceNormalization_output_0: 3d114451
/block.0/norm2_5/Reshape_1_output_0: 3d350588
/block.1/norm1_3/Reshape_1_output_0: 3d114451
onnx::Mul_1814_output: 3c219013
ONNXTRT_Broadcast_524_output: 3c219013
/block.1/norm1_3/Mul_output_0: 3d26ada2
onnx::Add_1815_output: 3b9ec175
ONNXTRT_Broadcast_526_output: 3b9ec175
/block.1/norm1_3/Add_output_0: 3d21541f
/block.1_3/Sigmoid_output_0: 3c02dd9a
/block.1_3/Mul_output_0: 3cbfaf71
/block.1/conv1_3/Conv_output_0: 3e5454b7
down.3.block.1.temb_proj.weight_output: 3b70413f
/block.1/temb_proj_3/Gemm_output: 3de4bbee
ONNXTRT_Broadcast_528_output: 3ab314d2
/block.1/temb_proj_3/Gemm_output_0: 3dd33ddd
/block.0/norm1_5/Reshape_1_output_0: 3d8745cb
/attn.1_1/Transpose_output_0: 3d6f7ab4
ONNXTRT_Broadcast_1202_output: 3ccf5034
/attn.1/k_1/Conv_output_0: 3d54560a
/block.1_3/Unsqueeze_output_0: 3dd33ddd
/upsample/conv_1/Conv_output_0: 3f341bad
ONNXTRT_Broadcast_1162_output: 3cfa0104
/attn.0/proj_out_1/Conv_output_0: 3e917b5a
/block.2/conv2_3/Conv_output_0: 3f8d28d5
/block.2/norm1_3/Add_output_0: 3d12ddc8
up.1.block.2.temb_proj.weight_output: 3bfd74d0
/block.1_3/Unsqueeze_1_output_0: 3dd33ddd
/block.1_3/Add_output_0: 3e8a1436
/block.1/norm2_3/Reshape_output_0: 3e8a1436
/block.1/norm2_3/InstanceNormalization_output_0: 3d0bb83a
ONNXTRT_Broadcast_868_output: 3c477af5
/block.0_7/Sigmoid_1_output_0: 3c0a8225
/block.1/norm2_3/Reshape_1_output_0: 3d0bb83a
onnx::Mul_1816_output: 3c7ea67c
ONNXTRT_Broadcast_554_output: 3c7ea67c
/block.1/norm2_3/Mul_output_0: 3d752a80
onnx::Add_1817_output: 3c14b43e
ONNXTRT_Broadcast_556_output: 3c14b43e
/block.1/norm2_3/Add_output_0: 3d907fe3
/block.1_3/Sigmoid_1_output_0: 3c00ad02
/block.1_3/Mul_1_output_0: 3cb0f5ab
/block.1/conv2_3/Conv_output_0: 3e1754bf
/block.1_3/Add_1_output_0: 3ec05c17
/block_1/norm1/Reshape_output_0: 3ec05c17
/block_1/norm1/InstanceNormalization_output_0: 3d1fd51c
/block.0_7/Mul_1_output_0: 3d27de0b
/block.0/conv2_7/Conv_output_0: 3ef2f153
/block_1/norm1/Reshape_1_output_0: 3d1fd51c
onnx::Mul_1818_output: 3c31fc85
ONNXTRT_Broadcast_564_output: 3c31fc85
/block_1/norm1/Mul_output_0: 3d201c48
onnx::Add_1819_output: 3bb6bfa9
ONNXTRT_Broadcast_566_output: 3bb6bfa9
/block_1/norm1/Add_output_0: 3d3fe989
/block_1/Sigmoid_output_0: 3c0168cc
/block_1/Mul_output_0: 3cb2460e
/block_1/conv1/Conv_output_0: 3e4d2953
mid.block_1.temb_proj.weight_output: 3b7fa774
/block_1/temb_proj/Gemm_output: 3dcf29fd
ONNXTRT_Broadcast_568_output: 3ad8663b
/block_1/temb_proj/Gemm_output_0: 3df72ba0
ONNXTRT_Broadcast_866_output: 3ca1ae87
/attn.0_1/Reshape_output_0: 3d4522c3
onnx::Add_1861_output: 3c3e32ea
/attn.2/norm/Mul_output_0: 3cdd8b65
ONNXTRT_Broadcast_876_output: 3c5eda69
/block_1/Unsqueeze_output_0: 3df72ba0
/block.0/norm1_7/InstanceNormalization_output_0: 3d8b0bdc
ONNXTRT_Broadcast_796_output: 3c2a7bec
/attn.2/Reshape_3_output_0: 3d8d35de
onnx::Mul_1854_output: 3c51cef7
/block.2/norm2_2/Reshape_1_output_0: 3d53dfe5
/block_1/Unsqueeze_1_output_0: 3df72ba0
/block_1/Add_output_0: 3e6c39fb
/block_1/norm2/Reshape_output_0: 3e6c39fb
/block_1/norm2/InstanceNormalization_output_0: 3cf3f8ba
/block.0/nin_shortcut_4/Conv_output_0: 40242dab
/block.0_7/Add_1_output_0: 40272d25
/block_1/norm2/Reshape_1_output_0: 3cf3f8ba
onnx::Mul_1820_output: 3c81e81a
ONNXTRT_Broadcast_594_output: 3c81e81a
/block_1/norm2/Mul_output_0: 3d5b7a2a
onnx::Add_1821_output: 3c213570
ONNXTRT_Broadcast_596_output: 3c213570
/block_1/norm2/Add_output_0: 3d80475d
/block_1/Sigmoid_1_output_0: 3c074804
/block_1/Mul_1_output_0: 3d0174c7
/block_1/conv2/Conv_output_0: 3e3c18fc
/block_1/Add_1_output_0: 3ed697df
/attn_1/norm/Reshape_output_0: 3ed697df
/attn_1/norm/InstanceNormalization_output_0: 3d0fa565
/Concat_11_output_0: 3fcc4bc3
/block.1/norm1_7/Reshape_output_0: 3fcc4bc3
/attn_1/norm/Reshape_1_output_0: 3d0fa565
onnx::Mul_1822_output: 3b66f55a
ONNXTRT_Broadcast_604_output: 3b66f55a
/attn_1/norm/Mul_output_0: 3c783616
onnx::Add_1823_output: 3a553aae
ONNXTRT_Broadcast_606_output: 3a553aae
/attn_1/norm/Add_output_0: 3c766306
/attn_1/q/Conv_output_0: 3cdd333a
/attn_1/k/Conv_output_0: 3d0ce1c6
/attn_1/v/Conv_output_0: 3cd4fa84
/block.1/norm1_7/InstanceNormalization_output_0: 3d7c0a09
/block.1_6/Unsqueeze_1_output_0: 3f28b1f3
onnx::Mul_1877_output: 3c46b6fd
/attn.1/norm_1/InstanceNormalization_output_0: 3d473c36
/block.2_3/Mul_output_0: 3c905f32
ONNXTRT_Broadcast_1172_output: 3c46b6fd
up.2.block.1.temb_proj.weight_output: 3bda0ce4
onnx::Add_1842_output: 3c40b959
/block.1/norm1_7/Reshape_1_output_0: 3d7c0a09
/attn.1/q_1/Conv_output_0: 3d6f7ab4
/block.1/norm1_7/Mul_output_0: 3d37568e
/block.1/temb_proj_7/Gemm_output_0: 3e854b49
onnx::Add_1878_output: 3c109599
/block.1_7/Mul_output_0: 3cc11bca
/block.1/norm2_6/Mul_output_0: 3d975a6d
/block.2/norm2_2/Add_output_0: 3d8cd986
ONNXTRT_Broadcast_1174_output: 3c109599
/block.1/conv1_7/Conv_output_0: 3e5106dc
/block.1/conv2_5/Conv_output_0: 3e87782c
/block.1_7/Unsqueeze_output_0: 3e854b49
/block.1/norm1_7/Add_output_0: 3d206ad7
up.0.block.1.temb_proj.weight_output: 3bbd699f
/block.1_5/Sigmoid_output_0: 3c0272bd
/block.1/norm1_6/Reshape_output_0: 3ebcbf4c
/attn_1/Reshape_output_0: 3cdd333a
/attn_1/Transpose_output_0: 3cdd333a
/attn_1/Reshape_1_output_0: 3d0ce1c6
/attn_1/MatMul_output_0: 3f52b60a
/attn_1/Constant_4_output_0_output: 3a010a14
ONNXTRT_Broadcast_619_output: 3a010a14
/attn_1/Mul_1_output_0: 3d52b60a
/attn_1/Softmax_output: 3bd8b954
/attn_1/Softmax_output_0: 3bd8b954
/norm_out/Reshape_output_0: 40c5acf1
ONNXTRT_Broadcast_1252_output: 3d04ebcf
/attn_1/Reshape_2_output_0: 3cd4fa84
/attn_1/Transpose_1_output_0: 3bd8b954
/attn_1/MatMul_1_output_0: 3ca69ba1
/block.1_7/Sigmoid_output_0: 3c003bbd
/block.1/temb_proj_7/Gemm_output: 3e905d33
ONNXTRT_Broadcast_1176_output: 3aeff97d
onnx::Mul_1870_output: 3ba4966c
ONNXTRT_Broadcast_838_output: 3c479295
/attn_1/Reshape_3_output_0: 3ca69ba1
/attn_1/proj_out/Conv_output_0: 3db66a75
/attn_1/Add_output_0: 3ecf2f8f
/block_2/norm1/Reshape_output_0: 3ecf2f8f
/block_2/norm1/InstanceNormalization_output_0: 3d165254
up.2.block.0.temb_proj.weight_output: 3ba85cc2
/block_2/norm1/Reshape_1_output_0: 3d165254
onnx::Mul_1824_output: 3c317775
ONNXTRT_Broadcast_636_output: 3c317775
/block_2/norm1/Mul_output_0: 3d2d4112
onnx::Add_1825_output: 3bd6c62f
ONNXTRT_Broadcast_638_output: 3bd6c62f
/block_2/norm1/Add_output_0: 3d4d2836
/block_2/Sigmoid_output_0: 3c047e0c
/block_2/Mul_output_0: 3ca49fe6
/block_2/conv1/Conv_output_0: 3e4f0a21
mid.block_2.temb_proj.weight_output: 3b61b0fe
/block_2/temb_proj/Gemm_output: 3dc753d6
ONNXTRT_Broadcast_640_output: 3b0c3014
/block_2/temb_proj/Gemm_output_0: 3db632f5
/block.1_6/Sigmoid_output_0: 3c00a603
/attn.2/Softmax_output: 39b70e63
/block.0_6/Add_output_0: 3f218af5
/block.2/conv1_3/Conv_output_0: 3e4917cc
/block.0_6/Sigmoid_output_0: 3c0bcedf
/block_2/Unsqueeze_output_0: 3db632f5
/attn.0_1/Softmax_output_0: 3a31b67b
up.1.block.1.temb_proj.weight_output: 3c06f043
/attn.0/k_1/Conv_output_0: 3d5f8c45
/block.2_2/Add_output_0: 3f3900c7
/block_2/Unsqueeze_1_output_0: 3db632f5
/block_2/Add_output_0: 3e537ac4
/block_2/norm2/Reshape_output_0: 3e537ac4
/block_2/norm2/InstanceNormalization_output_0: 3d0dba2d
/attn.1/v_1/Conv_output_0: 3dae04b3
/block_2/norm2/Reshape_1_output_0: 3d0dba2d
onnx::Mul_1826_output: 3c9609b0
ONNXTRT_Broadcast_666_output: 3c9609b0
/block_2/norm2/Mul_output_0: 3d79fe14
onnx::Add_1827_output: 3c17a43a
ONNXTRT_Broadcast_668_output: 3c17a43a
/block_2/norm2/Add_output_0: 3d855f46
/block_2/Sigmoid_1_output_0: 3c01e5dc
/block_2/Mul_1_output_0: 3d0122a9
/block_2/conv2/Conv_output_0: 3e4fd330
/block_2/Add_1_output_0: 3ee5f5b0
/Concat_1_output_0: 3ee80ede
/block.0/norm1_4/Reshape_output_0: 3ee80ede
/block.0/norm1_4/InstanceNormalization_output_0: 3d19c937
/block.0_7/Unsqueeze_output_0: 3e9ef7de
/block.2/temb_proj_2/Gemm_output: 3f150661
/block.0/norm1_4/Reshape_1_output_0: 3d19c937
onnx::Mul_1828_output: 3c500bf2
ONNXTRT_Broadcast_676_output: 3c500bf2
/block.0/norm1_4/Mul_output_0: 3d55f477
onnx::Add_1829_output: 3bfbc1fa
ONNXTRT_Broadcast_678_output: 3bfbc1fa
/block.0/norm1_4/Add_output_0: 3d3c8a6f
/block.0_4/Sigmoid_output_0: 3c034b5e
/block.0_4/Mul_output_0: 3cc1c5bf
/block.0/conv1_4/Conv_output_0: 3ed9baf6
up.3.block.0.temb_proj.weight_output: 3b5318a4
/block.0/temb_proj_4/Gemm_output: 3daa36cd
ONNXTRT_Broadcast_680_output: 3ab0d687
/block.0/temb_proj_4/Gemm_output_0: 3db59efd
/block.0_5/Add_1_output_0: 3f1951cc
/block.0_5/Sigmoid_1_output_0: 3c02f3a7
/upsample/conv_2/Conv_output_0: 409dd5a5
/block.0_6/Add_1_output_0: 3f130e2a
/block.0_5/Add_output_0: 3f24f654
onnx::Add_1844_output: 3c6fcbd8
/block.0_4/Unsqueeze_output_0: 3db59efd
/block.0/norm2_6/Reshape_output_0: 3f218af5
/block.0/norm1_6/Mul_output_0: 3d88d7ce
ONNXTRT_Broadcast_826_output: 3cacafa2
/Concat_4_output_0: 3f673275
/block.2/conv1_1/Conv_output_0: 3f9785b9
/block.0_4/Unsqueeze_1_output_0: 3db59efd
/block.0_4/Add_output_0: 3eda3b6e
/block.0/norm2_4/Reshape_output_0: 3eda3b6e
/block.0/norm2_4/InstanceNormalization_output_0: 3d1ff281
/block.1_7/Unsqueeze_1_output_0: 3e854b49
/block.1_7/Add_output_0: 3ea9d750
/block.0/norm2_4/Reshape_1_output_0: 3d1ff281
onnx::Mul_1830_output: 3ca41246
ONNXTRT_Broadcast_706_output: 3ca41246
/block.0/norm2_4/Mul_output_0: 3da7a3ca
onnx::Add_1831_output: 3c2ca880
ONNXTRT_Broadcast_708_output: 3c2ca880
/block.0/norm2_4/Add_output_0: 3da6bd06
/block.0_4/Sigmoid_1_output_0: 3c0106d8
/block.0_4/Mul_1_output_0: 3d24d262
/block.0/conv2_4/Conv_output_0: 3ecef263
/block.0/nin_shortcut_1/Conv_output_0: 3eca5aad
/block.0_4/Add_1_output_0: 3f2dfa01
/Concat_2_output_0: 3f569dd3
/block.1/norm1_4/Reshape_output_0: 3f569dd3
/block.1/norm1_4/InstanceNormalization_output_0: 3d23f3fb
/block.1/norm2_7/Reshape_output_0: 3ea9d750
/block.1/norm1_4/Reshape_1_output_0: 3d23f3fb
onnx::Mul_1832_output: 3c29e34d
ONNXTRT_Broadcast_716_output: 3c29e34d
/block.1/norm1_4/Mul_output_0: 3d439771
onnx::Add_1833_output: 3c27070c
ONNXTRT_Broadcast_718_output: 3c27070c
/block.1/norm1_4/Add_output_0: 3d51d69b
/block.1_4/Sigmoid_output_0: 3c03a52c
/block.1_4/Mul_output_0: 3c9996fc
/block.1/conv1_4/Conv_output_0: 3e8193e4
up.3.block.1.temb_proj.weight_output: 3b6c8829
/block.1/temb_proj_4/Gemm_output: 3dce807f
ONNXTRT_Broadcast_720_output: 3b13ae5f
/block.1/temb_proj_4/Gemm_output_0: 3dce0c08
ONNXTRT_Broadcast_878_output: 3c523152
/attn.1_1/Add_output_0: 3f17b8cf
/block.1/norm2_5/Mul_output_0: 3dafec9d
/block.1_5/Add_1_output_0: 3e9f82df
ONNXTRT_Broadcast_918_output: 3c8cc653
/block.1_4/Unsqueeze_output_0: 3dce0c08
/upsample_1/Resize_output_0: 3e7cff55
/block.2/norm2_1/Reshape_output_0: 3fba9328
ONNXTRT_Broadcast_1216_output: 3af79513
ONNXTRT_Broadcast_880_output: 3b5ab97f
/block.1/nin_shortcut_1/Conv_output_0: 3e3357f8
/block.1_4/Unsqueeze_1_output_0: 3dce0c08
/block.1_4/Add_output_0: 3eb36dfb
/block.1/norm2_4/Reshape_output_0: 3eb36dfb
/block.1/norm2_4/InstanceNormalization_output_0: 3d208db2
/block.1/norm2_4/Reshape_1_output_0: 3d208db2
onnx::Mul_1834_output: 3c9fa8d8
ONNXTRT_Broadcast_746_output: 3c9fa8d8
/block.1/norm2_4/Mul_output_0: 3dacfed2
onnx::Add_1835_output: 3c536416
ONNXTRT_Broadcast_748_output: 3c536416
/block.1/norm2_4/Add_output_0: 3da065d9
/block.1_4/Sigmoid_1_output_0: 3c029776
/block.1_4/Mul_1_output_0: 3d258259
/block.1/conv2_4/Conv_output_0: 3eec63c6
/block.1/nin_shortcut/Conv_output_0: 3ea4e8b4
/block.1_4/Add_1_output_0: 3f4f9aad
/Concat_3_output_0: 3f2344ea
/block.2/norm1/Reshape_output_0: 3f2344ea
/block.2/norm1/InstanceNormalization_output_0: 3d3f20b4
/block.1/norm2_7/InstanceNormalization_output_0: 3d2027fd
/block.2/norm1/Reshape_1_output_0: 3d3f20b4
onnx::Mul_1836_output: 3c300013
ONNXTRT_Broadcast_756_output: 3c300013
/block.2/norm1/Mul_output_0: 3d5367e7
onnx::Add_1837_output: 3c14004b
ONNXTRT_Broadcast_758_output: 3c14004b
/block.2/norm1/Add_output_0: 3d3c5394
/block.2/Sigmoid_output_0: 3c0369dd
/block.2/Mul_output_0: 3cb0a941
/block.2/conv1/Conv_output_0: 3eb0f623
up.3.block.2.temb_proj.weight_output: 3b9efbf7
/block.2/temb_proj/Gemm_output: 3df66a32
ONNXTRT_Broadcast_760_output: 3b3de3f9
/block.2/temb_proj/Gemm_output_0: 3e0ace94
/block.2/norm1_3/Mul_output_0: 3d1585f7
/attn.0_1/Softmax_output: 3a31b67b
ONNXTRT_Broadcast_1060_output: 3c426c31
/norm_out/Reshape_1_output_0: 3d56fa67
onnx::Add_1855_output: 3c8cc653
/block.2/Unsqueeze_output_0: 3e0ace94
/attn.1_1/Mul_1_output_0: 3db58493
onnx::Mul_1885_output: 3d04ebcf
ONNXTRT_Broadcast_1102_output: 3b8f3652
/block.2/temb_proj_1/Gemm_output: 3e9deed9
/block.0/norm2_7/InstanceNormalization_output_0: 3d1cc8b9
/block.2/Unsqueeze_1_output_0: 3e0ace94
/block.2/Add_output_0: 3eb8260d
/block.2/norm2/Reshape_output_0: 3eb8260d
/block.2/norm2/InstanceNormalization_output_0: 3d08a3de
onnx::Add_1865_output: 3b662a76
/block.2/norm2/Reshape_1_output_0: 3d08a3de
onnx::Mul_1838_output: 3c8deb7d
ONNXTRT_Broadcast_786_output: 3c8deb7d
/block.2/norm2/Mul_output_0: 3d919ea2
onnx::Add_1839_output: 3c2cb258
ONNXTRT_Broadcast_788_output: 3c2cb258
/block.2/norm2/Add_output_0: 3d8d8c8d
/block.2/Sigmoid_1_output_0: 3c07a064
/block.2/Mul_1_output_0: 3cd41139
/block.2/conv2/Conv_output_0: 3e8e4bef
/block.2/nin_shortcut/Conv_output_0: 3e8141c9
/block.2/Add_1_output_0: 3eb32acb
