TRT-100100-EntropyCalibration2
latent: 3d072588
up.3.block.2.conv2.bias_output: 3affdf28
up.3.block.2.nin_shortcut.bias: 3affdf28
up.3.block.2.conv1.bias_output: 3b3de3f9
up.3.block.2.temb_proj.bias: 3b3de3f9
up.3.block.1.conv2.bias_output: 3b029f16
up.3.block.1.nin_shortcut.bias: 3b029f16
up.3.block.1.conv1.bias_output: 3b13ae5f
up.3.block.1.temb_proj.bias: 3b13ae5f
up.3.block.0.conv2.bias_output: 3aa43a93
up.3.block.0.nin_shortcut.bias: 3aa43a93
up.3.block.0.conv1.bias_output: 3ab0d687
up.3.block.0.temb_proj.bias: 3ab0d687
up.2.block.2.conv2.bias_output: 3b633f03
up.2.block.2.nin_shortcut.bias: 3b633f03
up.2.block.2.conv1.bias_output: 3b5ab97f
up.2.block.2.temb_proj.bias: 3b5ab97f
up.2.block.1.conv2.bias_output: 3b054290
up.2.block.1.nin_shortcut.bias: 3b054290
up.2.block.1.conv1.bias_output: 3b58d5b4
up.2.block.1.temb_proj.bias: 3b58d5b4
up.2.block.0.conv2.bias_output: 3b14a478
up.2.block.0.nin_shortcut.bias: 3b14a478
up.2.block.0.conv1.bias_output: 3b1346a2
up.2.block.0.temb_proj.bias: 3b1346a2
up.1.block.2.conv2.bias_output: 3bb2fa3f
up.1.block.2.nin_shortcut.bias: 3bb2fa3f
up.1.block.2.conv1.bias_output: 3b7a7421
up.1.block.2.temb_proj.bias: 3b7a7421
up.1.block.1.conv2.bias_output: 3b5343da
up.1.block.1.nin_shortcut.bias: 3b5343da
up.1.block.1.conv1.bias_output: 3b6b2bf4
up.1.block.1.temb_proj.bias: 3b6b2bf4
up.1.block.0.conv2.bias_output: 3bb6a56f
up.1.block.0.nin_shortcut.bias: 3bb6a56f
up.1.block.0.conv1.bias_output: 3b7bdd87
up.1.block.0.temb_proj.bias: 3b7bdd87
up.0.block.2.conv2.bias_output: 3b876b74
up.0.block.2.nin_shortcut.bias: 3b876b74
up.0.block.2.conv1.bias_output: 3af79513
up.0.block.2.temb_proj.bias: 3af79513
up.0.block.1.conv2.bias_output: 3b97e6dc
up.0.block.1.nin_shortcut.bias: 3b97e6dc
up.0.block.1.conv1.bias_output: 3aeff97d
up.0.block.1.temb_proj.bias: 3aeff97d
up.0.block.0.conv2.bias_output: 3bbf68ef
up.0.block.0.nin_shortcut.bias: 3bbf68ef
up.0.block.0.conv1.bias_output: 3b0eb810
up.0.block.0.temb_proj.bias: 3b0eb810
mid.block_2.conv1.bias_output: 3b0c3014
mid.block_2.temb_proj.bias: 3b0c3014
mid.block_1.conv1.bias_output: 3ad8663b
mid.block_1.temb_proj.bias: 3ad8663b
down.3.block.1.conv1.bias_output: 3ab314d2
down.3.block.1.temb_proj.bias: 3ab314d2
down.3.block.0.conv1.bias_output: 3aa58dd5
down.3.block.0.temb_proj.bias: 3aa58dd5
down.2.block.1.conv1.bias_output: 3af79f61
down.2.block.1.temb_proj.bias: 3af79f61
down.2.block.0.conv1.bias_output: 3b0a9250
down.2.block.0.temb_proj.bias: 3b0a9250
down.1.block.1.conv1.bias_output: 3b5c3af6
down.1.block.1.temb_proj.bias: 3b5c3af6
down.1.block.0.conv2.bias_output: 3ba664ff
down.1.block.0.nin_shortcut.bias: 3ba664ff
down.1.block.0.conv1.bias_output: 3b815865
down.1.block.0.temb_proj.bias: 3b815865
down.0.block.1.conv1.bias_output: 3b7bbe93
down.0.block.1.temb_proj.bias: 3b7bbe93
down.0.block.0.conv1.bias_output: 3bbee7a3
down.0.block.0.temb_proj.bias: 3bbee7a3
/Cast_output_0: 40fc07af
/block.0/norm2_7/InstanceNormalization_output_0: 3d21711c
onnx::Add_1869_output: 3bfc744c
ONNXTRT_Broadcast_1132_output: 3c584f4b
/block.0_5/Mul_output_0: 3ca46496
/Unsqueeze_output_0: 40fc07af
/Constant_1_output_0_output: 3c010a14
/Mul_output_0: 408d4d3a
/Sin_output_0: 3c05e33a
/Cos_output_0: 3c0cfecd
/Concat_output_0: 3c0cfecd
temb.dense.0.weight_output: 3b8c4b1a
/dense.0/Gemm_output: 3d52166d
temb.dense.0.bias_output: 3b0a72d1
ONNXTRT_Broadcast_output: 3b0a72d1
/dense.0/Gemm_output_0: 3d54a25d
/Sigmoid_output_0: 3c004e75
/Mul_1_output_0: 3be6c8f5
temb.dense.1.weight_output: 3b29c707
/dense.1/Gemm_output: 3d6bd5ab
temb.dense.1.bias_output: 3acf3dfa
ONNXTRT_Broadcast_4_output: 3acf3dfa
/dense.1/Gemm_output_0: 3d3cd492
/conv_in/Conv_output_0: 3d83c82a
/block.0/norm1/Reshape_output_0: 3d83c82a
/block.0/norm1/InstanceNormalization_output_0: 3d2fb0f6
ONNXTRT_Broadcast_1252_output: 3d04ebcf
/block.0/norm1/Reshape_1_output_0: 3d2fb0f6
onnx::Mul_1767_output: 3c989f5c
ONNXTRT_Broadcast_11_output: 3c989f5c
/block.0/norm1/Mul_output_0: 3d306fbd
onnx::Add_1768_output: 3b963415
ONNXTRT_Broadcast_13_output: 3b963415
/block.0/norm1/Add_output_0: 3d274aa7
/block.0/Sigmoid_output_0: 3c015ae4
/block.0/Mul_output_0: 3cc284aa
/block.0/conv1/Conv_output_0: 3f05ce9e
/block.0/Sigmoid_1_output_0: 3c03c286
/block.0/Mul_1_output_0: 3c8b3afe
down.0.block.0.temb_proj.weight_output: 3c3f7b44
/block.0/temb_proj/Gemm_output: 3f84c198
ONNXTRT_Broadcast_15_output: 3bbee7a3
/block.0/temb_proj/Gemm_output_0: 3f78609f
/attn.2/Softmax_output_0: 39d08a85
/attn.0_1/Add_output_0: 3ee6e967
/block.2/norm1_1/Mul_output_0: 3d97efe7
/block.0/Unsqueeze_output_0: 3f78609f
/block.0_6/Unsqueeze_1_output_0: 3ed51c1b
/block.2_2/Add_output_0: 3f34b6f3
onnx::Add_1867_output: 3bd6d1bb
ONNXTRT_Broadcast_1162_output: 3cfa0104
/block.0/Unsqueeze_1_output_0: 3f78609f
/block.0/Add_output_0: 3f9665ca
/block.0/norm2/Reshape_output_0: 3f9665ca
/block.0/norm2/InstanceNormalization_output_0: 3d5a6bee
/block.1/norm2_5/Reshape_1_output_0: 3d2bce53
/block.2/temb_proj_1/Gemm_output_0: 3e85b8d5
/block.0/norm2/Reshape_1_output_0: 3d5a6bee
onnx::Mul_1769_output: 3cae0ab5
ONNXTRT_Broadcast_41_output: 3cae0ab5
/block.0/norm2/Mul_output_0: 3d816538
onnx::Add_1770_output: 3c0dc603
ONNXTRT_Broadcast_43_output: 3c0dc603
/block.0/norm2/Add_output_0: 3d4970a2
/block.0/Sigmoid_2_output_0: 3c007d5d
/block.0/Mul_2_output_0: 3c3ff162
/block.0/conv2/Conv_output_0: 3d9c0d53
/block.0/Add_1_output_0: 3dc66133
/block.1/norm1/Reshape_output_0: 3dc66133
/block.1/norm1/InstanceNormalization_output_0: 3d367fcf
/block.1/norm2_5/InstanceNormalization_output_0: 3d2bce53
onnx::Mul_1856_output: 3c9b19f6
/block.1/norm1/Reshape_1_output_0: 3d367fcf
onnx::Mul_1771_output: 3cac897e
ONNXTRT_Broadcast_51_output: 3cac897e
/block.1/norm1/Mul_output_0: 3d470160
onnx::Add_1772_output: 3bec6095
ONNXTRT_Broadcast_53_output: 3bec6095
/block.1/norm1/Add_output_0: 3d54fbf4
/block.1/Sigmoid_output_0: 3c00f425
/block.1/Mul_output_0: 3cb16ae8
/block.1/conv1/Conv_output_0: 3e9d8c07
down.0.block.1.temb_proj.weight_output: 3c094cbd
/block.1/temb_proj/Gemm_output: 3f387d1d
ONNXTRT_Broadcast_55_output: 3b7bbe93
/block.1/temb_proj/Gemm_output_0: 3f485f7c
/attn.0/norm_1/Reshape_output_0: 3f0f1244
/block.2_2/Mul_1_output_0: 3cd10782
/block.0/conv2_6/Conv_output_0: 3e956167
onnx::Add_1884_output: 3c47e068
/block.2_2/Unsqueeze_1_output_0: 3f121dad
/block.1/Unsqueeze_output_0: 3f485f7c
/upsample/conv_1/Conv_output_0: 3f231137
onnx::Add_1848_output: 3c477af5
ONNXTRT_Broadcast_906_output: 3c8198d4
/block.2_1/Unsqueeze_output_0: 3e85b8d5
ONNXTRT_Broadcast_1043_output: 3a010a14
/block.2_1/Add_1_output_0: 3e7b4d1c
/block.1/Unsqueeze_1_output_0: 3f485f7c
/block.1/Add_output_0: 3f5ae95a
/block.1/norm2/Reshape_output_0: 3f5ae95a
/block.1/norm2/InstanceNormalization_output_0: 3d4462ac
ONNXTRT_Broadcast_1214_output: 3bc99663
/block.1/norm2/Reshape_1_output_0: 3d4462ac
onnx::Mul_1773_output: 3c9603f4
ONNXTRT_Broadcast_81_output: 3c9603f4
/block.1/norm2/Mul_output_0: 3d82805f
onnx::Add_1774_output: 3c1e3524
ONNXTRT_Broadcast_83_output: 3c1e3524
/block.1/norm2/Add_output_0: 3d80a2a4
/block.1/Sigmoid_1_output_0: 3c016d0e
/block.1/Mul_1_output_0: 3cb12960
/block.1/conv2/Conv_output_0: 3dd77518
/block.1/Add_1_output_0: 3dbbf774
onnx::Add_1865_output: 3b662a76
/block.0_6/Add_1_output_0: 3f0f1244
up.2.block.0.temb_proj.weight_output: 3ba85cc2
/attn.2/norm/Mul_output_0: 3cf10221
onnx::Mul_1875_output: 3cfa0104
/attn.1_1/Reshape_2_output_0: 3dac6b61
/block.2_3/Sigmoid_1_output_0: 3c09a29f
/block.2/norm2_3/Mul_output_0: 3dc0b9c2
/attn.2/Softmax_output: 39d08a85
/attn.1/norm_1/InstanceNormalization_output_0: 3d3773df
/block.2/norm1_3/Reshape_1_output_0: 3d5d70b9
/attn.0/proj_out_1/Conv_output_0: 3e9276ca
/block.1/temb_proj_6/Gemm_output: 3ed54f48
ONNXTRT_Broadcast_1020_output: 3c2b0333
/block.0/temb_proj_7/Gemm_output: 3eb0b5d1
/block.0/norm1_7/InstanceNormalization_output_0: 3d8c6b6f
/Concat_9_output_0: 3f038114
/block.2/norm1_2/Mul_output_0: 3d6e1d8d
/block.0_7/Add_output_0: 3ec814ea
onnx::Mul_1864_output: 3b9b55e6
/block.0_7/Unsqueeze_output_0: 3e9c9221
/block.2/norm1_1/Reshape_1_output_0: 3d38f7e6
/block.2_3/Mul_1_output_0: 3d4504eb
/block.1_6/Sigmoid_1_output_0: 3c0045bd
onnx::Add_1876_output: 3c375f04
/norm_out/Add_output_0: 3dcc8ee9
/block.0/conv1_7/Conv_output_0: 3e989f52
/attn.1_1/Constant_4_output_0_output: 3a010a14
/block.2/norm2_3/InstanceNormalization_output_0: 3d382e51
onnx::Mul_1881_output: 3c408182
/Sigmoid_1_output_0: 3bece4a1
/block.2_3/Unsqueeze_output_0: 3e7656a0
/attn.0_1/Reshape_1_output_0: 3d703d80
/attn.0_1/MatMul_1_output_0: 3d51d920
/attn.0_1/Softmax_output_0: 3a3245c3
/block.1/norm1_6/Reshape_1_output_0: 3d534289
ONNXTRT_Broadcast_1064_output: 3b7a7421
onnx::Add_1861_output: 3c3e32ea
up.1.block.1.temb_proj.weight_output: 3c06f043
onnx::Mul_1870_output: 3ba4966c
/block.1/norm2_5/Reshape_output_0: 3efbb723
/block.1_5/Add_output_0: 3efbb723
/block.1_5/Unsqueeze_1_output_0: 3e6abe53
/block.1/norm2_6/Reshape_output_0: 3f6cf013
/block.1/norm2_6/Add_output_0: 3d92c445
/attn.2/Add_output_0: 3f5aca7a
/block.1/conv2_6/Conv_output_0: 3e614f32
onnx::Mul_1873_output: 3c584f4b
/block.1/norm2_6/Reshape_1_output_0: 3d2097f3
/downsample/Pad_output_0: 3dbbf774
/downsample/conv/Conv_output_0: 3e6d20c1
/block.0/norm1_1/Reshape_output_0: 3e6d20c1
/block.0/norm1_1/InstanceNormalization_output_0: 3d54f151
/Concat_7_output_0: 3ed2d6c5
/block.0/norm1_1/Reshape_1_output_0: 3d54f151
onnx::Mul_1780_output: 3c7af8b4
ONNXTRT_Broadcast_146_output: 3c7af8b4
/block.0/norm1_1/Mul_output_0: 3d400af8
onnx::Add_1781_output: 3bb9217b
ONNXTRT_Broadcast_148_output: 3bb9217b
/block.0/norm1_1/Add_output_0: 3d4c1dc7
/block.0_1/Sigmoid_output_0: 3c09b22a
/block.0_1/Mul_output_0: 3ce9786d
/block.0/conv1_1/Conv_output_0: 3f376a27
down.1.block.0.temb_proj.weight_output: 3c6699b7
/block.0/temb_proj_1/Gemm_output: 3fab0a77
ONNXTRT_Broadcast_150_output: 3b815865
/block.0/temb_proj_1/Gemm_output_0: 3f68361a
/block.0/conv2_7/Conv_output_0: 3f07ef6e
/block.2/conv2_1/Conv_output_0: 3e14e810
/attn.1/norm_1/Reshape_output_0: 3f15b4a7
/attn.1/norm_1/Mul_output_0: 3cc256ad
/block.0_1/Unsqueeze_output_0: 3f68361a
onnx::Mul_1866_output: 3c426c31
/attn.1/v_1/Conv_output_0: 3dac6b61
/block.2/norm2_1/InstanceNormalization_output_0: 3d819d9f
ONNXTRT_Broadcast_1164_output: 3c375f04
/attn.2/q/Conv_output_0: 3d4d6db4
/block.0_1/Unsqueeze_1_output_0: 3f68361a
/block.0_1/Add_output_0: 3fa911eb
/block.0/norm2_1/Reshape_output_0: 3fa911eb
/block.0/norm2_1/InstanceNormalization_output_0: 3d4fab62
/block.2/norm1_2/InstanceNormalization_output_0: 3d7eae80
/block.0/conv1_6/Conv_output_0: 3f0e2b12
/block.0/norm2_1/Reshape_1_output_0: 3d4fab62
onnx::Mul_1782_output: 3c5cfaba
ONNXTRT_Broadcast_176_output: 3c5cfaba
/block.0/norm2_1/Mul_output_0: 3d650bae
onnx::Add_1783_output: 3b8cf18b
ONNXTRT_Broadcast_178_output: 3b8cf18b
/block.0/norm2_1/Add_output_0: 3d49151a
/block.0_1/Sigmoid_1_output_0: 3be5e15e
/block.0_1/Mul_1_output_0: 3b105080
/block.0/conv2_1/Conv_output_0: 3da479cf
/block.0/nin_shortcut/Conv_output_0: 3db34b70
/block.0_1/Add_1_output_0: 3dd69842
/attn.0/norm/Reshape_output_0: 3dd69842
/attn.0/norm/InstanceNormalization_output_0: 3d32753a
/attn.0/norm/Reshape_1_output_0: 3d32753a
onnx::Mul_1784_output: 3b8b92a0
ONNXTRT_Broadcast_186_output: 3b8b92a0
/attn.0/norm/Mul_output_0: 3c91a8d3
onnx::Add_1785_output: 3bb448ab
ONNXTRT_Broadcast_188_output: 3bb448ab
/attn.0/norm/Add_output_0: 3c8967f8
/attn.0/q/Conv_output_0: 3d39f845
/attn.0/k/Conv_output_0: 3d2c8f4c
/attn.0/v/Conv_output_0: 3d1f32cc
/block.0_6/Sigmoid_output_0: 3c010801
/attn.1_1/Reshape_1_output_0: 3d6081f5
ONNXTRT_Broadcast_1060_output: 3c426c31
/attn.0_1/Constant_4_output_0_output: 3a010a14
/block.1/nin_shortcut_2/Conv_output_0: 3ef1da7f
/Concat_12_output_0: 3f840290
/attn.2/Transpose_1_output_0: 39d08a85
/block.1/norm2_6/InstanceNormalization_output_0: 3d2097f3
/upsample/conv_2/Conv_output_0: 409f81a3
/block.1_6/Mul_1_output_0: 3c9a60b8
/block.0/norm1_7/Reshape_1_output_0: 3d8c6b6f
/block.1_5/Add_1_output_0: 3e8e4b6a
onnx::Mul_1868_output: 3c893e8e
ONNXTRT_Broadcast_1134_output: 3c7e5164
/block.2/norm2_2/InstanceNormalization_output_0: 3d354684
/attn.1_1/Transpose_1_output_0: 3a6014a5
/block.2_3/Unsqueeze_1_output_0: 3e7656a0
/block.2/norm2_3/Add_output_0: 3db135bb
ONNXTRT_Broadcast_1030_output: 3b662a76
/block.2/norm2_1/Reshape_1_output_0: 3d819d9f
/block.1_6/Mul_output_0: 3cb10c84
up.2.block.1.temb_proj.weight_output: 3bda0ce4
/block.1/norm1_5/Add_output_0: 3d8e0872
/block.1_5/Unsqueeze_output_0: 3e6abe53
/block.1/conv1_5/Conv_output_0: 3f0016ed
ONNXTRT_Broadcast_838_output: 3c479295
/attn.0/Reshape_output_0: 3d39f845
/attn.0/Transpose_output_0: 3d39f845
/attn.0/Reshape_1_output_0: 3d2c8f4c
/attn.0/MatMul_output_0: 3f7f5c7d
/attn.0/Constant_4_output_0_output: 3a010a14
ONNXTRT_Broadcast_201_output: 3a010a14
/attn.0/Mul_1_output_0: 3d7f5c7d
/attn.0/Softmax_output: 3a227521
/attn.0/Softmax_output_0: 3a227521
/block.2/norm2_1/Mul_output_0: 3dd6eda3
/block.2/norm1_1/Add_output_0: 3d7f062e
/attn.0/Reshape_2_output_0: 3d1f32cc
/attn.0/Transpose_1_output_0: 3a227521
/attn.0/MatMul_1_output_0: 3cca44f8
/block.1_5/Sigmoid_1_output_0: 3c06aeb6
/block.2/temb_proj_2/Gemm_output_0: 3f121dad
/block.1/temb_proj_5/Gemm_output: 3e6a3f6a
onnx::Add_1863_output: 3c2b0333
/block.1_5/Sigmoid_output_0: 3c010da4
/attn.0/Reshape_3_output_0: 3cca44f8
/attn.0/proj_out/Conv_output_0: 3db4bc60
/attn.0/Add_output_0: 3de14c03
/block.1/norm1_1/Reshape_output_0: 3de14c03
/block.1/norm1_1/InstanceNormalization_output_0: 3d7037b7
/block.2/norm2_3/Reshape_output_0: 3e92ad8f
onnx::Add_1850_output: 3c523152
/block.1/norm1_1/Reshape_1_output_0: 3d7037b7
onnx::Mul_1786_output: 3c79689b
ONNXTRT_Broadcast_218_output: 3c79689b
/block.1/norm1_1/Mul_output_0: 3d7d4bda
onnx::Add_1787_output: 3bc111af
ONNXTRT_Broadcast_220_output: 3bc111af
/block.1/norm1_1/Add_output_0: 3d8cb963
/block.1_1/Sigmoid_output_0: 3c0be90b
/block.1_1/Mul_output_0: 3cea2c56
/block.1/conv1_1/Conv_output_0: 3ed81d47
down.1.block.1.temb_proj.weight_output: 3be84944
/block.1/temb_proj_1/Gemm_output: 3fb2d786
ONNXTRT_Broadcast_222_output: 3b5c3af6
/block.1/temb_proj_1/Gemm_output_0: 3f735217
ONNXTRT_Broadcast_1062_output: 3bd6d1bb
/attn.0/norm_1/Add_output_0: 3c94dc98
/attn.2/Transpose_output_0: 3d4d6db4
/block.0_6/Sigmoid_1_output_0: 3c004b12
/attn.2/MatMul_output_0: 3f794d1c
ONNXTRT_Broadcast_916_output: 3c51cef7
/block.1_1/Unsqueeze_output_0: 3f735217
/block.2/nin_shortcut_1/Conv_output_0: 3dd875d0
/block.2/norm1_2/Add_output_0: 3d6804e0
/upsample/conv/Conv_output_0: 3f8c5a22
/block.1_1/Unsqueeze_1_output_0: 3f735217
/block.1_1/Add_output_0: 3fb99d4c
/block.1/norm2_1/Reshape_output_0: 3fb99d4c
/block.1/norm2_1/InstanceNormalization_output_0: 3d2f8136
/block.1/norm1_5/Mul_output_0: 3d87b3aa
/attn.0/v_1/Conv_output_0: 3d9f8ed5
/block.1/norm2_1/Reshape_1_output_0: 3d2f8136
onnx::Mul_1788_output: 3c6cbc2f
ONNXTRT_Broadcast_248_output: 3c6cbc2f
/block.1/norm2_1/Mul_output_0: 3d6a4ca0
onnx::Add_1789_output: 3ba3c275
ONNXTRT_Broadcast_250_output: 3ba3c275
/block.1/norm2_1/Add_output_0: 3d5788f0
/block.1_1/Sigmoid_1_output_0: 3bee42c4
/block.1_1/Mul_1_output_0: 3c678a12
/block.1/conv2_1/Conv_output_0: 3d33cd9a
/block.1_1/Add_1_output_0: 3de3b836
/attn.1/norm/Reshape_output_0: 3de3b836
/attn.1/norm/InstanceNormalization_output_0: 3d30d606
/block.1/norm1_5/Reshape_1_output_0: 3d5d0147
/attn.1/norm/Reshape_1_output_0: 3d30d606
onnx::Mul_1790_output: 3b73f83d
ONNXTRT_Broadcast_258_output: 3b73f83d
/attn.1/norm/Mul_output_0: 3c6d65a3
onnx::Add_1791_output: 3ba90873
ONNXTRT_Broadcast_260_output: 3ba90873
/attn.1/norm/Add_output_0: 3c7ae209
/attn.1/q/Conv_output_0: 3d247646
/attn.1/k/Conv_output_0: 3d38369e
/attn.1/v/Conv_output_0: 3cf88251
ONNXTRT_Broadcast_918_output: 3c8cc653
/block.2_1/Unsqueeze_1_output_0: 3e85b8d5
/block.0_7/Mul_output_0: 3cc001da
/block.2/temb_proj_1/Gemm_output: 3e93fead
/block.0/norm2_7/Reshape_output_0: 3ec814ea
/Concat_6_output_0: 3e89d876
/block.1/nin_shortcut_3/Conv_output_0: 3fe8d073
/block.2/norm1_2/Reshape_output_0: 3f038114
onnx::Mul_1883_output: 3cb709b7
/block.1/norm1_5/InstanceNormalization_output_0: 3d5d0147
/block.1/norm1_5/Reshape_output_0: 3ec04d36
/attn.2/k/Conv_output_0: 3d45e271
/block.0/nin_shortcut_2/Conv_output_0: 3e636158
/block.0_5/Mul_1_output_0: 3cd38556
onnx::Mul_1843_output: 3cacafa2
/block.0_5/Unsqueeze_1_output_0: 3e28380c
onnx::Mul_1858_output: 3b8adbd9
/block.0/norm2_5/Add_output_0: 3db01d5e
/block.1_7/Mul_1_output_0: 3d11de4c
/Mul_2_output_0: 3c19daf8
/block.2_1/Mul_output_0: 3ce706b1
onnx::Add_1844_output: 3c6fcbd8
/block.0/norm2_5/InstanceNormalization_output_0: 3d30bf00
/norm_out/Reshape_output_0: 40b877a4
/attn.1/Reshape_output_0: 3d247646
/attn.1/Transpose_output_0: 3d247646
/attn.1/Reshape_1_output_0: 3d38369e
/attn.1/MatMul_output_0: 3fd4e0f8
/attn.1/Constant_4_output_0_output: 3a010a14
ONNXTRT_Broadcast_273_output: 3a010a14
/attn.1/Mul_1_output_0: 3dd4e0f8
/attn.1/Softmax_output: 3a7b399d
/attn.1/Softmax_output_0: 3a7b399d
/attn.2/norm/InstanceNormalization_output_0: 3d3341f8
/block.0_5/Unsqueeze_output_0: 3e28380c
/attn.1/Reshape_2_output_0: 3cf88251
/attn.1/Transpose_1_output_0: 3a7b399d
/attn.1/MatMul_1_output_0: 3cc0e22b
ONNXTRT_Broadcast_826_output: 3cacafa2
/block.1_6/Sigmoid_output_0: 3c00722f
/block.2_2/Mul_output_0: 3cc10fe2
/block.0/norm2_5/Reshape_output_0: 3f29b782
/attn.1/Reshape_3_output_0: 3cc0e22b
/attn.1/proj_out/Conv_output_0: 3da0e205
/attn.1/Add_output_0: 3da0bace
/block.1_6/Unsqueeze_output_0: 3ed63741
/Concat_10_output_0: 3fe36070
/block.0_7/Sigmoid_output_0: 3bffbd03
/attn.2/proj_out/Conv_output_0: 3ec45a07
/attn.0_1/MatMul_output_0: 3fa98230
onnx::Add_1859_output: 3b669c26
ONNXTRT_Broadcast_796_output: 3c2a7bec
/attn.2/Mul_1_output_0: 3d794d1c
/attn.1_1/Softmax_output_0: 3a6014a5
onnx::Add_1871_output: 3b8f3652
/block.1_6/Add_1_output_0: 3f15b4a7
onnx::Add_1874_output: 3c7e5164
ONNXTRT_Broadcast_946_output: 3c9b19f6
/block.0/norm1_7/Add_output_0: 3d478ef4
/block.2/norm2_2/Reshape_1_output_0: 3d354684
up.0.block.0.temb_proj.weight_output: 3bc50fb8
/block.2_3/Add_output_0: 3e92ad8f
/block.2/temb_proj_2/Gemm_output: 3f058043
/attn.1/k_1/Conv_output_0: 3d6081f5
/block.0_7/Unsqueeze_1_output_0: 3e9c9221
/block.2_3/Add_1_output_0: 40b877a4
ONNXTRT_Broadcast_958_output: 3b669c26
/block.2/norm2_2/Mul_output_0: 3d8a9520
/block.0/norm2_6/Add_output_0: 3da99e30
/upsample_2/Resize_output_0: 3f5aca7a
/block.2/conv2_3/Conv_output_0: 3f956b54
/attn.0/k_1/Conv_output_0: 3d703d80
onnx::Mul_1854_output: 3c51cef7
ONNXTRT_Broadcast_836_output: 3c4dd28d
ONNXTRT_Broadcast_1254_output: 3cb33291
onnx::Add_1857_output: 3c25d518
/attn.0_1/Mul_1_output_0: 3da98230
/block.2/conv1_3/Conv_output_0: 3e4078ba
/block.0/norm1_5/Reshape_1_output_0: 3d52ab16
/block.1_6/Unsqueeze_1_output_0: 3ed63741
ONNXTRT_Broadcast_1244_output: 3c47e068
/block.1/norm2_5/Mul_output_0: 3d9e51cc
/attn.1_1/Add_output_0: 3f0e3270
ONNXTRT_Broadcast_990_output: 3c3e32ea
ONNXTRT_Broadcast_800_output: 3b1346a2
/block.0/conv1_5/Conv_output_0: 3f2549ca
/block.0_5/Sigmoid_output_0: 3c034185
/block.0/norm1_5/Mul_output_0: 3d518611
/block.1_7/Add_1_output_0: 4003f3d5
ONNXTRT_Broadcast_798_output: 3c40b959
onnx::Mul_1841_output: 3c2a7bec
/Concat_4_output_0: 3f469fdc
/block.1/norm2_7/Add_output_0: 3da4c90d
/downsample_1/Pad_output_0: 3da0bace
/downsample/conv_1/Conv_output_0: 3e064cb3
/block.0/norm1_2/Reshape_output_0: 3e064cb3
/block.0/norm1_2/InstanceNormalization_output_0: 3d271391
/attn.2/norm/Add_output_0: 3cd9b127
/block.0/norm1_2/Reshape_1_output_0: 3d271391
onnx::Mul_1797_output: 3c330a89
ONNXTRT_Broadcast_347_output: 3c330a89
/block.0/norm1_2/Mul_output_0: 3d58b645
onnx::Add_1798_output: 3bbf682a
ONNXTRT_Broadcast_349_output: 3bbf682a
/block.0/norm1_2/Add_output_0: 3d3e90a7
/block.0_2/Sigmoid_output_0: 3c0156d0
/block.0_2/Mul_output_0: 3cd33699
/block.0/conv1_2/Conv_output_0: 3ee12377
down.2.block.0.temb_proj.weight_output: 3bb2cf25
/block.0/temb_proj_2/Gemm_output: 3e5cbdb2
ONNXTRT_Broadcast_351_output: 3b0a9250
/block.0/temb_proj_2/Gemm_output_0: 3e68bda8
ONNXTRT_Broadcast_1100_output: 3ba4966c
/attn.0/norm_1/Mul_output_0: 3c9548c1
onnx::Mul_1851_output: 3c8198d4
/block.0/norm2_6/Mul_output_0: 3da54daf
/block.0/norm2_6/Reshape_output_0: 3f1a3a1d
ONNXTRT_Broadcast_1136_output: 3b0eb810
/block.0_2/Unsqueeze_output_0: 3e68bda8
/block.2_1/Mul_1_output_0: 3c67866b
ONNXTRT_Broadcast_1028_output: 3b9b55e6
/block.0_2/Unsqueeze_1_output_0: 3e68bda8
/block.0_2/Add_output_0: 3f0f97a4
/block.0/norm2_2/Reshape_output_0: 3f0f97a4
/block.0/norm2_2/InstanceNormalization_output_0: 3d55e7d4
ONNXTRT_Broadcast_1204_output: 3c3f43a0
/block.0/norm1_5/InstanceNormalization_output_0: 3d52ab16
/block.0/norm2_2/Reshape_1_output_0: 3d55e7d4
onnx::Mul_1799_output: 3c453e81
ONNXTRT_Broadcast_377_output: 3c453e81
/block.0/norm2_2/Mul_output_0: 3d6637e0
onnx::Add_1800_output: 3bc83456
ONNXTRT_Broadcast_379_output: 3bc83456
/block.0/norm2_2/Add_output_0: 3d668175
/block.0_2/Sigmoid_1_output_0: 3c072cf1
/block.0_2/Mul_1_output_0: 3c807eed
/block.0/conv2_2/Conv_output_0: 3dad36e5
/block.0_2/Add_1_output_0: 3e19fc90
/block.1/norm1_2/Reshape_output_0: 3e19fc90
/block.1/norm1_2/InstanceNormalization_output_0: 3d2441d1
/block.1/norm1_2/Reshape_1_output_0: 3d2441d1
onnx::Mul_1801_output: 3c37c33f
ONNXTRT_Broadcast_387_output: 3c37c33f
/block.1/norm1_2/Mul_output_0: 3d2da58f
onnx::Add_1802_output: 3bc5e0ca
ONNXTRT_Broadcast_389_output: 3bc5e0ca
/block.1/norm1_2/Add_output_0: 3d3b8b0f
/block.1_2/Sigmoid_output_0: 3c00fcc5
/block.1_2/Mul_output_0: 3cb26910
/block.1/conv1_2/Conv_output_0: 3eaafbd9
down.2.block.1.temb_proj.weight_output: 3bd18b18
/block.1/temb_proj_2/Gemm_output: 3e11bd1d
ONNXTRT_Broadcast_391_output: 3af79f61
/block.1/temb_proj_2/Gemm_output_0: 3e0cab14
/block.0/nin_shortcut_4/Conv_output_0: 4020ccc3
ONNXTRT_Broadcast_866_output: 3ca1ae87
/block.2/norm1_2/Reshape_1_output_0: 3d7eae80
/block.0_6/Mul_output_0: 3c994f39
/attn.1_1/MatMul_output_0: 3fc693de
/block.1_2/Unsqueeze_output_0: 3e0cab14
ONNXTRT_Broadcast_971_output: 3a010a14
/block.2_3/Mul_output_0: 3c99c85e
/block.0/norm1_5/Add_output_0: 3d4d4bf3
onnx::Mul_1885_output: 3d04ebcf
/attn.2/MatMul_1_output_0: 3d8a0dac
/block.1_2/Unsqueeze_1_output_0: 3e0cab14
/block.1_2/Add_output_0: 3f0826a6
/block.1/norm2_2/Reshape_output_0: 3f0826a6
/block.1/norm2_2/InstanceNormalization_output_0: 3d281c07
/block.1/norm1_6/InstanceNormalization_output_0: 3d534289
ONNXTRT_Broadcast_1242_output: 3cb709b7
/block.1/norm2_2/Reshape_1_output_0: 3d281c07
onnx::Mul_1803_output: 3c67ade7
ONNXTRT_Broadcast_417_output: 3c67ade7
/block.1/norm2_2/Mul_output_0: 3d4319d0
onnx::Add_1804_output: 3b8a4834
ONNXTRT_Broadcast_419_output: 3b8a4834
/block.1/norm2_2/Add_output_0: 3d566b7c
/block.1_2/Sigmoid_1_output_0: 3c00d56a
/block.1_2/Mul_1_output_0: 3c8057ed
/block.1/conv2_2/Conv_output_0: 3dadd18b
/block.1_2/Add_1_output_0: 3e25ed0d
/block.1/norm1_6/Add_output_0: 3d847624
ONNXTRT_Broadcast_992_output: 3b6b2bf4
/block.2/norm1_3/Add_output_0: 3d1c3261
/block.1/conv1_6/Conv_output_0: 3ebb8475
up.1.block.2.temb_proj.weight_output: 3bfd74d0
/Concat_11_output_0: 3fb778d8
onnx::Add_1852_output: 3c0a9422
ONNXTRT_Broadcast_1092_output: 3bfc744c
/block.2/norm2_2/Add_output_0: 3d93688a
/attn.1_1/Softmax_output: 3a6014a5
/block.1_5/Mul_1_output_0: 3ca6345d
/block.2_3/Sigmoid_output_0: 3bfe33cd
ONNXTRT_Broadcast_840_output: 3b58d5b4
/block.1/norm2_6/Mul_output_0: 3d8b056c
/block.1_5/Mul_output_0: 3cec3ee8
onnx::Mul_1860_output: 3c5c58e2
/block.0/temb_proj_5/Gemm_output_0: 3e28380c
ONNXTRT_Broadcast_948_output: 3c25d518
/attn.1/proj_out_1/Conv_output_0: 3eb4a30a
/attn.1/q_1/Conv_output_0: 3d553ae3
/block.0/norm2_7/Reshape_1_output_0: 3d21711c
/attn.2/norm/Reshape_output_0: 3f5de076
/attn.1_1/Reshape_output_0: 3d553ae3
ONNXTRT_Broadcast_878_output: 3c523152
/block.0/temb_proj_7/Gemm_output_0: 3e9c9221
/attn.1_1/MatMul_1_output_0: 3d7d9443
/block.2_2/Add_1_output_0: 3f5de076
onnx::Mul_1849_output: 3c5eda69
/block.0/norm2_7/Mul_output_0: 3da3bb30
/norm_out/Mul_output_0: 3daae518
/block.0/norm2_7/Add_output_0: 3dad6084
/block.0_7/Sigmoid_1_output_0: 3c00cb97
/block.1/temb_proj_6/Gemm_output_0: 3ed63741
onnx::Add_1886_output: 3cb33291
/attn.0/q_1/Conv_output_0: 3d53bcfa
/attn.2/Reshape_1_output_0: 3d45e271
/block.0_6/Mul_1_output_0: 3cb27ee8
/attn.2/Constant_4_output_0_output: 3a010a14
/block.0_6/Unsqueeze_output_0: 3ed51c1b
/block.1/norm1_7/Reshape_output_0: 3fb778d8
/upsample_1/Resize_output_0: 3e7b4d1c
/block.2_2/Sigmoid_output_0: 3c02b501
/block.0/norm1_5/Reshape_output_0: 3f469fdc
/upsample/Resize_output_0: 3eda52c4
/block.2/norm1_1/InstanceNormalization_output_0: 3d38f7e6
/downsample_2/Pad_output_0: 3e25ed0d
/downsample/conv_2/Conv_output_0: 3eb399ec
/block.0/norm1_3/Reshape_output_0: 3eb399ec
/block.0/norm1_3/InstanceNormalization_output_0: 3cfc07d3
onnx::Add_1846_output: 3c479295
/block.0/norm1_3/Reshape_1_output_0: 3cfc07d3
onnx::Mul_1810_output: 3c180c11
ONNXTRT_Broadcast_484_output: 3c180c11
/block.0/norm1_3/Mul_output_0: 3d0ff884
onnx::Add_1811_output: 3b9d7a34
ONNXTRT_Broadcast_486_output: 3b9d7a34
/block.0/norm1_3/Add_output_0: 3d14363a
/block.0_3/Sigmoid_output_0: 3c009049
/block.0_3/Mul_output_0: 3cc03209
/block.0/conv1_3/Conv_output_0: 3e5ac596
down.3.block.0.temb_proj.weight_output: 3b7606f6
/block.0/temb_proj_3/Gemm_output: 3de51c1a
ONNXTRT_Broadcast_488_output: 3aa58dd5
/block.0/temb_proj_3/Gemm_output_0: 3deca0fc
/block.0/norm1_7/Mul_output_0: 3d35e93a
up.0.block.2.temb_proj.weight_output: 3ba266cc
/block.0/norm1_6/Reshape_1_output_0: 3d6e708f
onnx::Mul_1845_output: 3c4dd28d
/norm_out/Reshape_1_output_0: 3d48cab8
/block.0_3/Unsqueeze_output_0: 3deca0fc
/block.2_1/Sigmoid_1_output_0: 3c0331ec
/block.2/norm2_1/Reshape_output_0: 3f7e9521
/attn.0_1/Reshape_3_output_0: 3d51d920
/block.0/nin_shortcut_3/Conv_output_0: 3ea78065
onnx::Add_1882_output: 3bc99663
/block.0_3/Unsqueeze_1_output_0: 3deca0fc
/block.0_3/Add_output_0: 3e5b253c
/block.0/norm2_3/Reshape_output_0: 3e5b253c
/block.0/norm2_3/InstanceNormalization_output_0: 3d2c49f3
/block.2_2/Unsqueeze_output_0: 3f121dad
/block.2/norm1_1/Reshape_output_0: 3e89d876
/block.0/norm2_3/Reshape_1_output_0: 3d2c49f3
onnx::Mul_1812_output: 3c675914
ONNXTRT_Broadcast_514_output: 3c675914
/block.0/norm2_3/Mul_output_0: 3d77be88
onnx::Add_1813_output: 3c05cfbf
ONNXTRT_Broadcast_516_output: 3c05cfbf
/block.0/norm2_3/Add_output_0: 3d86e404
/block.0_3/Sigmoid_1_output_0: 3c00769f
/block.0_3/Mul_1_output_0: 3ce8a1b1
/block.0/conv2_3/Conv_output_0: 3e2b06ee
/block.0_3/Add_1_output_0: 3eacaf7b
/block.1/norm1_3/Reshape_output_0: 3eacaf7b
/block.1/norm1_3/InstanceNormalization_output_0: 3d0c813c
ONNXTRT_Broadcast_828_output: 3c6fcbd8
/block.1_7/Sigmoid_1_output_0: 3c00f102
/block.1/norm1_3/Reshape_1_output_0: 3d0c813c
onnx::Mul_1814_output: 3c219013
ONNXTRT_Broadcast_524_output: 3c219013
/block.1/norm1_3/Mul_output_0: 3d197085
onnx::Add_1815_output: 3b9ec175
ONNXTRT_Broadcast_526_output: 3b9ec175
/block.1/norm1_3/Add_output_0: 3d29bbf5
/block.1_3/Sigmoid_output_0: 3c09a65d
/block.1_3/Mul_output_0: 3ca44921
/block.1/conv1_3/Conv_output_0: 3e298d9d
down.3.block.1.temb_proj.weight_output: 3b70413f
/block.1/temb_proj_3/Gemm_output: 3dd2f02c
ONNXTRT_Broadcast_528_output: 3ab314d2
/block.1/temb_proj_3/Gemm_output_0: 3dea8e93
ONNXTRT_Broadcast_1102_output: 3b8f3652
ONNXTRT_Broadcast_956_output: 3b8adbd9
/block.0/norm2_5/Mul_output_0: 3db666e5
/attn.0_1/Reshape_output_0: 3d53bcfa
ONNXTRT_Broadcast_920_output: 3b7bdd87
/block.1_3/Unsqueeze_output_0: 3dea8e93
/block.2/norm2_1/Add_output_0: 3db5922b
/block.0_7/Mul_1_output_0: 3d296e0e
/block.0/norm1_6/Mul_output_0: 3d9074f8
onnx::Mul_1862_output: 3c9c9ebe
/attn.1_1/Reshape_3_output_0: 3d7d9443
/block.1_3/Unsqueeze_1_output_0: 3dea8e93
/block.1_3/Add_output_0: 3e3b0180
/block.1/norm2_3/Reshape_output_0: 3e3b0180
/block.1/norm2_3/InstanceNormalization_output_0: 3d1df2de
/block.1/norm2_3/Reshape_1_output_0: 3d1df2de
onnx::Mul_1816_output: 3c7ea67c
ONNXTRT_Broadcast_554_output: 3c7ea67c
/block.1/norm2_3/Mul_output_0: 3d6a631c
onnx::Add_1817_output: 3c14b43e
ONNXTRT_Broadcast_556_output: 3c14b43e
/block.1/norm2_3/Add_output_0: 3daadb5b
/block.1_3/Sigmoid_1_output_0: 3bff6b23
/block.1_3/Mul_1_output_0: 3cc0fb90
/block.1/conv2_3/Conv_output_0: 3e056937
/block.1_3/Add_1_output_0: 3ebbb445
/block_1/norm1/Reshape_output_0: 3ebbb445
/block_1/norm1/InstanceNormalization_output_0: 3d14d1e7
/Concat_8_output_0: 3eadfea1
/block_1/norm1/Reshape_1_output_0: 3d14d1e7
onnx::Mul_1818_output: 3c31fc85
ONNXTRT_Broadcast_564_output: 3c31fc85
/block_1/norm1/Mul_output_0: 3d2ce348
onnx::Add_1819_output: 3bb6bfa9
ONNXTRT_Broadcast_566_output: 3bb6bfa9
/block_1/norm1/Add_output_0: 3d3b115d
/block_1/Sigmoid_output_0: 3bffd019
/block_1/Mul_output_0: 3cb20e4f
/block_1/conv1/Conv_output_0: 3e1b1239
mid.block_1.temb_proj.weight_output: 3b7fa774
/block_1/temb_proj/Gemm_output: 3e018885
ONNXTRT_Broadcast_568_output: 3ad8663b
/block_1/temb_proj/Gemm_output_0: 3de56226
/block.2/conv1_2/Conv_output_0: 3f061e60
/attn.0/norm_1/Reshape_1_output_0: 3d34a83c
/attn.0_1/Transpose_1_output_0: 3a3245c3
/block.0/norm2_6/Reshape_1_output_0: 3d3ad110
/block.2/nin_shortcut_2/Conv_output_0: 3f55b3ee
up.1.block.0.temb_proj.weight_output: 3bf8619a
/block_1/Unsqueeze_output_0: 3de56226
/attn.1_1/Transpose_output_0: 3d553ae3
/attn.2/Reshape_3_output_0: 3d8a0dac
/attn.0_1/Softmax_output: 3a3245c3
onnx::Mul_1847_output: 3ca1ae87
onnx::Add_1842_output: 3c40b959
ONNXTRT_Broadcast_1115_output: 3a010a14
/block_1/Unsqueeze_1_output_0: 3de56226
/block_1/Add_output_0: 3e5e2c2f
/block_1/norm2/Reshape_output_0: 3e5e2c2f
/block_1/norm2/InstanceNormalization_output_0: 3d0964af
/block.1/norm1_7/InstanceNormalization_output_0: 3d64160f
/block_1/norm2/Reshape_1_output_0: 3d0964af
onnx::Mul_1820_output: 3c81e81a
ONNXTRT_Broadcast_594_output: 3c81e81a
/block_1/norm2/Mul_output_0: 3d63be21
onnx::Add_1821_output: 3c213570
ONNXTRT_Broadcast_596_output: 3c213570
/block_1/norm2/Add_output_0: 3d9ef547
/block_1/Sigmoid_1_output_0: 3c08a3da
/block_1/Mul_1_output_0: 3ce857a0
/block_1/conv2/Conv_output_0: 3e40d7be
/block_1/Add_1_output_0: 3ecf58c2
/attn_1/norm/Reshape_output_0: 3ecf58c2
/attn_1/norm/InstanceNormalization_output_0: 3d0870b1
/attn.0_1/Reshape_2_output_0: 3d9f8ed5
/block.2/conv2_2/Conv_output_0: 3e9d1248
/attn_1/norm/Reshape_1_output_0: 3d0870b1
onnx::Mul_1822_output: 3b66f55a
ONNXTRT_Broadcast_604_output: 3b66f55a
/attn_1/norm/Mul_output_0: 3c58f133
onnx::Add_1823_output: 3a553aae
ONNXTRT_Broadcast_606_output: 3a553aae
/attn_1/norm/Add_output_0: 3c624f5b
/attn_1/q/Conv_output_0: 3ce8a15f
/attn_1/k/Conv_output_0: 3d08f7ed
/attn_1/v/Conv_output_0: 3cd24e15
/block.1/norm1_7/Reshape_1_output_0: 3d64160f
onnx::Add_1878_output: 3c109599
/block.2/norm1_3/Mul_output_0: 3d12c379
/block.1_7/Mul_output_0: 3c8fd7c3
onnx::Mul_1877_output: 3c46b6fd
ONNXTRT_Broadcast_1174_output: 3c109599
ONNXTRT_Broadcast_1216_output: 3af79513
/block.1/conv1_7/Conv_output_0: 3e585d17
ONNXTRT_Broadcast_1172_output: 3c46b6fd
/block.1/norm1_7/Add_output_0: 3d177eb2
ONNXTRT_Broadcast_1090_output: 3c893e8e
/block.1_6/Add_output_0: 3f6cf013
/block.1/norm1_7/Mul_output_0: 3d2473ed
/block.1_7/Sigmoid_output_0: 3c000bb5
/block.1/norm1_6/Mul_output_0: 3d6f2442
up.0.block.1.temb_proj.weight_output: 3bbd699f
/block.1/temb_proj_5/Gemm_output_0: 3e6abe53
/block.1/temb_proj_7/Gemm_output: 3e3edd45
/block.1_7/Unsqueeze_output_0: 3e3f80af
ONNXTRT_Broadcast_1176_output: 3aeff97d
/attn.1_1/Mul_1_output_0: 3dc693de
ONNXTRT_Broadcast_988_output: 3c5c58e2
/block.1/temb_proj_7/Gemm_output_0: 3e3f80af
/block.1/conv2_5/Conv_output_0: 3e567f50
/attn.1/norm_1/Add_output_0: 3c9de22c
/attn_1/Reshape_output_0: 3ce8a15f
/attn_1/Transpose_output_0: 3ce8a15f
/attn_1/Reshape_1_output_0: 3d08f7ed
/attn_1/MatMul_output_0: 3f40afbb
/attn_1/Constant_4_output_0_output: 3a010a14
ONNXTRT_Broadcast_619_output: 3a010a14
/attn_1/Mul_1_output_0: 3d40afbb
/attn_1/Softmax_output: 3b8d04fd
/attn_1/Softmax_output_0: 3b8d04fd
/block.1_7/Unsqueeze_1_output_0: 3e3f80af
/block.1_7/Add_output_0: 3ea4a3f3
/attn_1/Reshape_2_output_0: 3cd24e15
/attn_1/Transpose_1_output_0: 3b8d04fd
/attn_1/MatMul_1_output_0: 3c965b60
/block.2_2/Sigmoid_1_output_0: 3c044f26
/block.2/norm2_2/Reshape_output_0: 3f34b6f3
ONNXTRT_Broadcast_1018_output: 3c9c9ebe
/block.0/temb_proj_5/Gemm_output: 3e447974
/attn_1/Reshape_3_output_0: 3c965b60
/attn_1/proj_out/Conv_output_0: 3d920a0b
/attn_1/Add_output_0: 3ecad99a
/block_2/norm1/Reshape_output_0: 3ecad99a
/block_2/norm1/InstanceNormalization_output_0: 3d125183
/block.1/norm2_7/Reshape_output_0: 3ea4a3f3
/block_2/norm1/Reshape_1_output_0: 3d125183
onnx::Mul_1824_output: 3c317775
ONNXTRT_Broadcast_636_output: 3c317775
/block_2/norm1/Mul_output_0: 3d34475b
onnx::Add_1825_output: 3bd6c62f
ONNXTRT_Broadcast_638_output: 3bd6c62f
/block_2/norm1/Add_output_0: 3d778732
/block_2/Sigmoid_output_0: 3c020a2f
/block_2/Mul_output_0: 3cbf6767
/block_2/conv1/Conv_output_0: 3e4ae566
mid.block_2.temb_proj.weight_output: 3b61b0fe
/block_2/temb_proj/Gemm_output: 3dc098f1
ONNXTRT_Broadcast_640_output: 3b0c3014
/block_2/temb_proj/Gemm_output_0: 3dc05cad
/attn.2/norm/Reshape_1_output_0: 3d3341f8
/block.0/norm1_6/Reshape_output_0: 3ed2d6c5
/block.2/nin_shortcut_3/Conv_output_0: 40a59384
/block.2/norm1_3/InstanceNormalization_output_0: 3d5d70b9
/attn.2/Reshape_output_0: 3d4d6db4
/block.0/norm1_6/Add_output_0: 3d8ce913
/block_2/Unsqueeze_output_0: 3dc05cad
/block.2_1/Add_output_0: 3f7e9521
/block.2/temb_proj_3/Gemm_output: 3e568aac
ONNXTRT_Broadcast_880_output: 3b5ab97f
/block_2/Unsqueeze_1_output_0: 3dc05cad
/block_2/Add_output_0: 3e470bd1
/block_2/norm2/Reshape_output_0: 3e470bd1
/block_2/norm2/InstanceNormalization_output_0: 3d14d457
/attn.0_1/Transpose_output_0: 3d53bcfa
/block.0/temb_proj_6/Gemm_output_0: 3ed51c1b
/block_2/norm2/Reshape_1_output_0: 3d14d457
onnx::Mul_1826_output: 3c9609b0
ONNXTRT_Broadcast_666_output: 3c9609b0
/block_2/norm2/Mul_output_0: 3d9b1bf2
onnx::Add_1827_output: 3c17a43a
ONNXTRT_Broadcast_668_output: 3c17a43a
/block_2/norm2/Add_output_0: 3da1fdc5
/block_2/Sigmoid_1_output_0: 3c00f61a
/block_2/Mul_1_output_0: 3ce98ec3
/block_2/conv2/Conv_output_0: 3e278be2
/block_2/Add_1_output_0: 3ef6b7c4
/Concat_1_output_0: 3ef6b7c4
/block.0/norm1_4/Reshape_output_0: 3ef6b7c4
/block.0/norm1_4/InstanceNormalization_output_0: 3d07b86e
/block.0/norm1_4/Reshape_1_output_0: 3d07b86e
onnx::Mul_1828_output: 3c500bf2
ONNXTRT_Broadcast_676_output: 3c500bf2
/block.0/norm1_4/Mul_output_0: 3d3fc2fb
onnx::Add_1829_output: 3bfbc1fa
ONNXTRT_Broadcast_678_output: 3bfbc1fa
/block.0/norm1_4/Add_output_0: 3d4a73ba
/block.0_4/Sigmoid_output_0: 3c0206a4
/block.0_4/Mul_output_0: 3c9938fd
/block.0/conv1_4/Conv_output_0: 3efe62f6
up.3.block.0.temb_proj.weight_output: 3b5318a4
/block.0/temb_proj_4/Gemm_output: 3db190f1
ONNXTRT_Broadcast_680_output: 3ab0d687
/block.0/temb_proj_4/Gemm_output_0: 3dab6206
/block.1/conv2_7/Conv_output_0: 3ef11ef4
ONNXTRT_Broadcast_1212_output: 3c408182
/block.0_5/Add_1_output_0: 3ee2d403
/block.0/conv2_5/Conv_output_0: 3ed2b136
/block.0_4/Unsqueeze_output_0: 3dab6206
/block.0_5/Add_output_0: 3f29b782
/attn.2/v/Conv_output_0: 3dce09c8
/block.0_5/Sigmoid_1_output_0: 3c05534f
/block.0/norm2_5/Reshape_1_output_0: 3d30bf00
/block.0/temb_proj_6/Gemm_output: 3f059ce0
/block.2_1/Sigmoid_output_0: 3c00fd2c
/block.0_4/Unsqueeze_1_output_0: 3dab6206
/block.0_4/Add_output_0: 3eb8a423
/block.0/norm2_4/Reshape_output_0: 3eb8a423
/block.0/norm2_4/InstanceNormalization_output_0: 3d0b90d8
/block.0/norm2_4/Reshape_1_output_0: 3d0b90d8
onnx::Mul_1830_output: 3ca41246
ONNXTRT_Broadcast_706_output: 3ca41246
/block.0/norm2_4/Mul_output_0: 3d97e577
onnx::Add_1831_output: 3c2ca880
ONNXTRT_Broadcast_708_output: 3c2ca880
/block.0/norm2_4/Add_output_0: 3d9bf04f
/block.0_4/Sigmoid_1_output_0: 3c097597
/block.0_4/Mul_1_output_0: 3d0f1ca6
/block.0/conv2_4/Conv_output_0: 3ed015eb
/block.0/nin_shortcut_1/Conv_output_0: 3eb9e8ce
/block.0_4/Add_1_output_0: 3f0ad872
/Concat_2_output_0: 3f0ad872
/block.1/norm1_4/Reshape_output_0: 3f0ad872
/block.1/norm1_4/InstanceNormalization_output_0: 3d214d4c
/block.1/norm2_7/InstanceNormalization_output_0: 3d292d8f
/block.0/norm1_6/InstanceNormalization_output_0: 3d6e708f
/block.1/norm1_4/Reshape_1_output_0: 3d214d4c
onnx::Mul_1832_output: 3c29e34d
ONNXTRT_Broadcast_716_output: 3c29e34d
/block.1/norm1_4/Mul_output_0: 3d2b30af
onnx::Add_1833_output: 3c27070c
ONNXTRT_Broadcast_718_output: 3c27070c
/block.1/norm1_4/Add_output_0: 3d3ca56f
/block.1_4/Sigmoid_output_0: 3c01ce5d
/block.1_4/Mul_output_0: 3cb0ddad
/block.1/conv1_4/Conv_output_0: 3e9d514d
up.3.block.1.temb_proj.weight_output: 3b6c8829
/block.1/temb_proj_4/Gemm_output: 3dd6ca2b
ONNXTRT_Broadcast_720_output: 3b13ae5f
/block.1/temb_proj_4/Gemm_output_0: 3dce0fe9
ONNXTRT_Broadcast_876_output: 3c5eda69
/attn.0/norm_1/InstanceNormalization_output_0: 3d34a83c
ONNXTRT_Broadcast_868_output: 3c477af5
noise_pred: 3d8387ab
/block.0/norm1_7/Reshape_output_0: 3fe36070
/block.2/norm1_3/Reshape_output_0: 3f840290
/block.1_4/Unsqueeze_output_0: 3dce0fe9
ONNXTRT_Broadcast_908_output: 3c0a9422
/block.1/norm2_5/Add_output_0: 3db0a8a6
/block.2/temb_proj_3/Gemm_output_0: 3e7656a0
up.2.block.2.temb_proj.weight_output: 3be40232
/attn.1/norm_1/Reshape_1_output_0: 3d3773df
/block.1/nin_shortcut_1/Conv_output_0: 3e21687c
/block.1_4/Unsqueeze_1_output_0: 3dce0fe9
/block.1_4/Add_output_0: 3ecfd1d7
/block.1/norm2_4/Reshape_output_0: 3ecfd1d7
/block.1/norm2_4/InstanceNormalization_output_0: 3d124ecd
/block.1/norm2_7/Reshape_1_output_0: 3d292d8f
/block.1/norm2_4/Reshape_1_output_0: 3d124ecd
onnx::Mul_1834_output: 3c9fa8d8
ONNXTRT_Broadcast_746_output: 3c9fa8d8
/block.1/norm2_4/Mul_output_0: 3d839f2d
onnx::Add_1835_output: 3c536416
ONNXTRT_Broadcast_748_output: 3c536416
/block.1/norm2_4/Add_output_0: 3da0f2e5
/block.1_4/Sigmoid_1_output_0: 3c02820d
/block.1_4/Mul_1_output_0: 3d278c96
/block.1/conv2_4/Conv_output_0: 3ec3a83f
/block.1/nin_shortcut/Conv_output_0: 3e9a5b2b
/block.1_4/Add_1_output_0: 3ef93e02
/Concat_3_output_0: 3f2767fd
/block.2/norm1/Reshape_output_0: 3f2767fd
/block.2/norm1/InstanceNormalization_output_0: 3d2e0297
onnx::Mul_1879_output: 3ccf5034
ONNXTRT_Broadcast_1202_output: 3ccf5034
/block.2/norm1/Reshape_1_output_0: 3d2e0297
onnx::Mul_1836_output: 3c300013
ONNXTRT_Broadcast_756_output: 3c300013
/block.2/norm1/Mul_output_0: 3d4be801
onnx::Add_1837_output: 3c14004b
ONNXTRT_Broadcast_758_output: 3c14004b
/block.2/norm1/Add_output_0: 3d381a42
/block.2/Sigmoid_output_0: 3c000315
/block.2/Mul_output_0: 3cb1f514
/block.2/conv1/Conv_output_0: 3e89d17c
up.3.block.2.temb_proj.weight_output: 3b9efbf7
/block.2/temb_proj/Gemm_output: 3dfbd945
ONNXTRT_Broadcast_760_output: 3b3de3f9
/block.2/temb_proj/Gemm_output_0: 3dfdb5df
/block.0_6/Add_output_0: 3f1a3a1d
/block.1/norm1_6/Reshape_output_0: 3eadfea1
/block.0/norm2_6/InstanceNormalization_output_0: 3d3ad110
onnx::Add_1855_output: 3c8cc653
/block.2/Unsqueeze_output_0: 3dfdb5df
/block.2/norm2_3/Reshape_1_output_0: 3d382e51
/norm_out/InstanceNormalization_output_0: 3d48cab8
/attn.2/Reshape_2_output_0: 3dce09c8
/block.2/conv1_1/Conv_output_0: 3f5f4d8a
/block.0_7/Add_1_output_0: 4022b98d
/Concat_5_output_0: 3ec04d36
/block.2/Unsqueeze_1_output_0: 3dfdb5df
/block.2/Add_output_0: 3ebf011b
/block.2/norm2/Reshape_output_0: 3ebf011b
/block.2/norm2/InstanceNormalization_output_0: 3d1fae63
/block.1/norm2_7/Mul_output_0: 3da17d21
onnx::Add_1880_output: 3c3f43a0
/block.2/norm2/Reshape_1_output_0: 3d1fae63
onnx::Mul_1838_output: 3c8deb7d
ONNXTRT_Broadcast_786_output: 3c8deb7d
/block.2/norm2/Mul_output_0: 3d7c3155
onnx::Add_1839_output: 3c2cb258
ONNXTRT_Broadcast_788_output: 3c2cb258
/block.2/norm2/Add_output_0: 3d8b683d
/block.2/Sigmoid_1_output_0: 3c005857
/block.2/Mul_1_output_0: 3cc0c864
/block.2/conv2/Conv_output_0: 3e633cce
/block.2/nin_shortcut/Conv_output_0: 3e9c8b1d
/block.2/Add_1_output_0: 3eda52c4
