TRT-100100-EntropyCalibration2
latent: 3cfff156
up.3.block.2.conv2.bias_output: 3affdf28
up.3.block.2.nin_shortcut.bias: 3affdf28
up.3.block.2.conv1.bias_output: 3b3de3f9
up.3.block.2.temb_proj.bias: 3b3de3f9
up.3.block.1.conv2.bias_output: 3b029f16
up.3.block.1.nin_shortcut.bias: 3b029f16
up.3.block.1.conv1.bias_output: 3b13ae5f
up.3.block.1.temb_proj.bias: 3b13ae5f
up.3.block.0.conv2.bias_output: 3aa43a93
up.3.block.0.nin_shortcut.bias: 3aa43a93
up.3.block.0.conv1.bias_output: 3ab0d687
up.3.block.0.temb_proj.bias: 3ab0d687
up.2.block.2.conv2.bias_output: 3b633f03
up.2.block.2.nin_shortcut.bias: 3b633f03
up.2.block.2.conv1.bias_output: 3b5ab97f
up.2.block.2.temb_proj.bias: 3b5ab97f
up.2.block.1.conv2.bias_output: 3b054290
up.2.block.1.nin_shortcut.bias: 3b054290
up.2.block.1.conv1.bias_output: 3b58d5b4
up.2.block.1.temb_proj.bias: 3b58d5b4
up.2.block.0.conv2.bias_output: 3b14a478
up.2.block.0.nin_shortcut.bias: 3b14a478
up.2.block.0.conv1.bias_output: 3b1346a2
up.2.block.0.temb_proj.bias: 3b1346a2
up.1.block.2.conv2.bias_output: 3bb2fa3f
up.1.block.2.nin_shortcut.bias: 3bb2fa3f
up.1.block.2.conv1.bias_output: 3b7a7421
up.1.block.2.temb_proj.bias: 3b7a7421
up.1.block.1.conv2.bias_output: 3b5343da
up.1.block.1.nin_shortcut.bias: 3b5343da
up.1.block.1.conv1.bias_output: 3b6b2bf4
up.1.block.1.temb_proj.bias: 3b6b2bf4
up.1.block.0.conv2.bias_output: 3bb6a56f
up.1.block.0.nin_shortcut.bias: 3bb6a56f
up.1.block.0.conv1.bias_output: 3b7bdd87
up.1.block.0.temb_proj.bias: 3b7bdd87
up.0.block.2.conv2.bias_output: 3b876b74
up.0.block.2.nin_shortcut.bias: 3b876b74
up.0.block.2.conv1.bias_output: 3af79513
up.0.block.2.temb_proj.bias: 3af79513
up.0.block.1.conv2.bias_output: 3b97e6dc
up.0.block.1.nin_shortcut.bias: 3b97e6dc
up.0.block.1.conv1.bias_output: 3aeff97d
up.0.block.1.temb_proj.bias: 3aeff97d
up.0.block.0.conv2.bias_output: 3bbf68ef
up.0.block.0.nin_shortcut.bias: 3bbf68ef
up.0.block.0.conv1.bias_output: 3b0eb810
up.0.block.0.temb_proj.bias: 3b0eb810
mid.block_2.conv1.bias_output: 3b0c3014
mid.block_2.temb_proj.bias: 3b0c3014
mid.block_1.conv1.bias_output: 3ad8663b
mid.block_1.temb_proj.bias: 3ad8663b
down.3.block.1.conv1.bias_output: 3ab314d2
down.3.block.1.temb_proj.bias: 3ab314d2
down.3.block.0.conv1.bias_output: 3aa58dd5
down.3.block.0.temb_proj.bias: 3aa58dd5
down.2.block.1.conv1.bias_output: 3af79f61
down.2.block.1.temb_proj.bias: 3af79f61
down.2.block.0.conv1.bias_output: 3b0a9250
down.2.block.0.temb_proj.bias: 3b0a9250
down.1.block.1.conv1.bias_output: 3b5c3af6
down.1.block.1.temb_proj.bias: 3b5c3af6
down.1.block.0.conv2.bias_output: 3ba664ff
down.1.block.0.nin_shortcut.bias: 3ba664ff
down.1.block.0.conv1.bias_output: 3b815865
down.1.block.0.temb_proj.bias: 3b815865
down.0.block.1.conv1.bias_output: 3b7bbe93
down.0.block.1.temb_proj.bias: 3b7bbe93
down.0.block.0.conv1.bias_output: 3bbee7a3
down.0.block.0.temb_proj.bias: 3bbee7a3
/Cast_output_0: 40edea95
ONNXTRT_Broadcast_1030_output: 3b662a76
onnx::Add_1869_output: 3bfc744c
/block.1/conv2_7/Conv_output_0: 3f11ab18
/attn.2/Softmax_output_0: 39f77280
/block.2/norm2_2/Add_output_0: 3d8ce229
/Unsqueeze_output_0: 40edea95
/Constant_1_output_0_output: 3c010a14
/Mul_output_0: 408457f0
/Sin_output_0: 3c03b6d8
/Cos_output_0: 3c02f18a
/Concat_output_0: 3c03b6d8
temb.dense.0.weight_output: 3b8c4b1a
/dense.0/Gemm_output: 3d5a805a
temb.dense.0.bias_output: 3b0a72d1
ONNXTRT_Broadcast_output: 3b0a72d1
/dense.0/Gemm_output_0: 3d60df79
/Sigmoid_output_0: 3c01bb72
/Mul_1_output_0: 3c045c89
temb.dense.1.weight_output: 3b29c707
/dense.1/Gemm_output: 3d5fe429
temb.dense.1.bias_output: 3acf3dfa
ONNXTRT_Broadcast_4_output: 3acf3dfa
/dense.1/Gemm_output_0: 3d1cd1d1
/conv_in/Conv_output_0: 3d9160d2
/block.0/norm1/Reshape_output_0: 3d9160d2
/block.0/norm1/InstanceNormalization_output_0: 3d33cbcd
/attn.2/Softmax_output: 39f77280
/block.1/norm2_6/Reshape_output_0: 3f63a3ba
/block.0/norm1/Reshape_1_output_0: 3d33cbcd
onnx::Mul_1767_output: 3c989f5c
ONNXTRT_Broadcast_11_output: 3c989f5c
/block.0/norm1/Mul_output_0: 3d30dca3
onnx::Add_1768_output: 3b963415
ONNXTRT_Broadcast_13_output: 3b963415
/block.0/norm1/Add_output_0: 3d34a4f9
/block.0/Sigmoid_output_0: 3c00d5cf
/block.0/Mul_output_0: 3cc02310
/block.0/conv1/Conv_output_0: 3f040580
/block.0/Sigmoid_1_output_0: 3c01953d
/block.0/Mul_1_output_0: 3c980cae
down.0.block.0.temb_proj.weight_output: 3c3f7b44
/block.0/temb_proj/Gemm_output: 3f72d152
ONNXTRT_Broadcast_15_output: 3bbee7a3
/block.0/temb_proj/Gemm_output_0: 3f692d7d
/attn.2/Transpose_output_0: 3d6468cd
/block.1/nin_shortcut_2/Conv_output_0: 3f19f8ba
ONNXTRT_Broadcast_971_output: 3a010a14
/attn.1_1/Transpose_output_0: 3d704f6c
onnx::Add_1884_output: 3c47e068
/block.0/Unsqueeze_output_0: 3f692d7d
/block.2_1/Sigmoid_1_output_0: 3c0caab7
/block.1/nin_shortcut_3/Conv_output_0: 3ff1bae5
onnx::Add_1861_output: 3c3e32ea
onnx::Add_1859_output: 3b669c26
onnx::Add_1850_output: 3c523152
/block.0/Unsqueeze_1_output_0: 3f692d7d
/block.0/Add_output_0: 3f8e6087
/block.0/norm2/Reshape_output_0: 3f8e6087
/block.0/norm2/InstanceNormalization_output_0: 3d53b388
/block.1_5/Sigmoid_1_output_0: 3c04591e
onnx::Mul_1881_output: 3c408182
/block.0/norm2/Reshape_1_output_0: 3d53b388
onnx::Mul_1769_output: 3cae0ab5
ONNXTRT_Broadcast_41_output: 3cae0ab5
/block.0/norm2/Mul_output_0: 3d993e48
onnx::Add_1770_output: 3c0dc603
ONNXTRT_Broadcast_43_output: 3c0dc603
/block.0/norm2/Add_output_0: 3d488bf7
/block.0/Sigmoid_2_output_0: 3c006a5b
/block.0/Mul_2_output_0: 3c347b05
/block.0/conv2/Conv_output_0: 3d9a1784
/block.0/Add_1_output_0: 3dca0451
/block.1/norm1/Reshape_output_0: 3dca0451
/block.1/norm1/InstanceNormalization_output_0: 3d2b7374
ONNXTRT_Broadcast_880_output: 3b5ab97f
/block.1/norm2_5/Add_output_0: 3db6ba14
/block.1/norm1/Reshape_1_output_0: 3d2b7374
onnx::Mul_1771_output: 3cac897e
ONNXTRT_Broadcast_51_output: 3cac897e
/block.1/norm1/Mul_output_0: 3d5a787b
onnx::Add_1772_output: 3bec6095
ONNXTRT_Broadcast_53_output: 3bec6095
/block.1/norm1/Add_output_0: 3d5298ff
/block.1/Sigmoid_output_0: 3c00ab67
/block.1/Mul_output_0: 3cd1bafc
/block.1/conv1/Conv_output_0: 3ea4145f
down.0.block.1.temb_proj.weight_output: 3c094cbd
/block.1/temb_proj/Gemm_output: 3f53287c
ONNXTRT_Broadcast_55_output: 3b7bbe93
/block.1/temb_proj/Gemm_output_0: 3f415de0
onnx::Add_1844_output: 3c6fcbd8
/block.0_5/Add_output_0: 3f269146
/block.1/norm2_6/Mul_output_0: 3d8a97a5
/block.0_6/Add_output_0: 3f23e028
/block.1/Unsqueeze_output_0: 3f415de0
/block.2/temb_proj_1/Gemm_output: 3ea95cd4
ONNXTRT_Broadcast_908_output: 3c0a9422
/attn.2/norm/Add_output_0: 3ce09315
/block.2/norm2_3/Add_output_0: 3da41b2b
/block.0/nin_shortcut_3/Conv_output_0: 3ed7a190
/block.0/norm1_6/InstanceNormalization_output_0: 3d80978d
/block.1/Unsqueeze_1_output_0: 3f415de0
/block.1/Add_output_0: 3f51dc5f
/block.1/norm2/Reshape_output_0: 3f51dc5f
/block.1/norm2/InstanceNormalization_output_0: 3d37104d
/block.1_7/Add_1_output_0: 4007d2aa
onnx::Add_1848_output: 3c477af5
/block.1/norm2/Reshape_1_output_0: 3d37104d
onnx::Mul_1773_output: 3c9603f4
ONNXTRT_Broadcast_81_output: 3c9603f4
/block.1/norm2/Mul_output_0: 3d80f8ec
onnx::Add_1774_output: 3c1e3524
ONNXTRT_Broadcast_83_output: 3c1e3524
/block.1/norm2/Add_output_0: 3d745574
/block.1/Sigmoid_1_output_0: 3c0213e7
/block.1/Mul_1_output_0: 3cd36bff
/block.1/conv2/Conv_output_0: 3e02df71
/block.1/Add_1_output_0: 3dea61c9
ONNXTRT_Broadcast_992_output: 3b6b2bf4
/Concat_8_output_0: 3ebd78b3
/block.0/norm1_5/Reshape_1_output_0: 3d5c5dd1
/attn.1_1/Mul_1_output_0: 3dd9cfa5
/norm_out/Mul_output_0: 3d9b6e36
/norm_out/Add_output_0: 3dc09093
/block.0/norm2_7/Mul_output_0: 3da357e4
/block.2/conv2_1/Conv_output_0: 3e1e9da3
/attn.1_1/Add_output_0: 3f2bfed4
/block.1/norm2_5/Mul_output_0: 3db3fc72
/block.1_7/Mul_1_output_0: 3d25d87c
onnx::Mul_1856_output: 3c9b19f6
/attn.2/Reshape_3_output_0: 3d926607
/block.0_7/Sigmoid_output_0: 3bffdf69
/block.2_3/Add_output_0: 3e934d27
up.0.block.0.temb_proj.weight_output: 3bc50fb8
/attn.1/proj_out_1/Conv_output_0: 3ed87ae6
/attn.1/k_1/Conv_output_0: 3d6b1505
/attn.1_1/Reshape_3_output_0: 3d90d9c6
ONNXTRT_Broadcast_1254_output: 3cb33291
/block.2/norm1_3/Reshape_1_output_0: 3d49aac8
/block.0/norm1_7/Mul_output_0: 3d35fe1e
ONNXTRT_Broadcast_1212_output: 3c408182
/attn.0/norm_1/Reshape_1_output_0: 3d3857cc
/block.1_6/Mul_1_output_0: 3c8feed6
/attn.0/proj_out_1/Conv_output_0: 3ea515d2
/attn.0_1/Transpose_output_0: 3d4f887e
onnx::Add_1882_output: 3bc99663
/attn.1/norm_1/Reshape_1_output_0: 3d2cf685
/block.2/nin_shortcut_2/Conv_output_0: 3f4f3ab8
ONNXTRT_Broadcast_1242_output: 3cb709b7
/block.2/norm1_1/Add_output_0: 3d93a733
/block.1_6/Unsqueeze_output_0: 3ef9759d
/attn.2/norm/Reshape_1_output_0: 3d3a466d
/block.0/conv1_6/Conv_output_0: 3f1d6ab0
/block.0_5/Unsqueeze_output_0: 3e2271ef
/block.0/norm1_6/Reshape_output_0: 3ef99024
/block.2/norm2_1/Reshape_output_0: 3f9a2e23
onnx::Mul_1864_output: 3b9b55e6
/block.1/norm2_5/Reshape_output_0: 3f3efb07
ONNXTRT_Broadcast_988_output: 3c5c58e2
ONNXTRT_Broadcast_866_output: 3ca1ae87
/block.1/norm2_5/InstanceNormalization_output_0: 3d58404e
up.0.block.2.temb_proj.weight_output: 3ba266cc
/downsample/Pad_output_0: 3dea61c9
/downsample/conv/Conv_output_0: 3e821c1a
/block.0/norm1_1/Reshape_output_0: 3e821c1a
/block.0/norm1_1/InstanceNormalization_output_0: 3d4bfe5c
onnx::Add_1863_output: 3c2b0333
/block.1/norm1_6/Reshape_1_output_0: 3d5a06f6
/block.0/norm1_1/Reshape_1_output_0: 3d4bfe5c
onnx::Mul_1780_output: 3c7af8b4
ONNXTRT_Broadcast_146_output: 3c7af8b4
/block.0/norm1_1/Mul_output_0: 3d742fdf
onnx::Add_1781_output: 3bb9217b
ONNXTRT_Broadcast_148_output: 3bb9217b
/block.0/norm1_1/Add_output_0: 3d49ee39
/block.0_1/Sigmoid_output_0: 3c00c856
/block.0_1/Mul_output_0: 3ce6096d
/block.0/conv1_1/Conv_output_0: 3f41b512
down.1.block.0.temb_proj.weight_output: 3c6699b7
/block.0/temb_proj_1/Gemm_output: 3f8e8c11
ONNXTRT_Broadcast_150_output: 3b815865
/block.0/temb_proj_1/Gemm_output_0: 3f9c930c
ONNXTRT_Broadcast_1162_output: 3cfa0104
/block.2/norm1_3/Reshape_output_0: 3f8fbf1a
/block.1/norm1_6/Add_output_0: 3d875250
/upsample_1/Resize_output_0: 3e862348
/block.0_6/Sigmoid_1_output_0: 3bfe867b
/block.0_1/Unsqueeze_output_0: 3f9c930c
/block.1_6/Add_output_0: 3f63a3ba
/block.2_2/Unsqueeze_output_0: 3f0e4654
/block.2_1/Mul_1_output_0: 3c5bc12f
ONNXTRT_Broadcast_916_output: 3c51cef7
/block.0_1/Unsqueeze_1_output_0: 3f9c930c
/block.0_1/Add_output_0: 3fa3c451
/block.0/norm2_1/Reshape_output_0: 3fa3c451
/block.0/norm2_1/InstanceNormalization_output_0: 3d45ac88
/block.0/norm2_6/InstanceNormalization_output_0: 3d2f8b29
onnx::Add_1865_output: 3b662a76
/block.0/norm2_1/Reshape_1_output_0: 3d45ac88
onnx::Mul_1782_output: 3c5cfaba
ONNXTRT_Broadcast_176_output: 3c5cfaba
/block.0/norm2_1/Mul_output_0: 3d5c76c8
onnx::Add_1783_output: 3b8cf18b
ONNXTRT_Broadcast_178_output: 3b8cf18b
/block.0/norm2_1/Add_output_0: 3d3cb574
/block.0_1/Sigmoid_1_output_0: 3bdfb8fd
/block.0_1/Mul_1_output_0: 3c106e1b
/block.0/conv2_1/Conv_output_0: 3dabb9f8
/block.0/nin_shortcut/Conv_output_0: 3dca2ea6
/block.0_1/Add_1_output_0: 3dfa423d
/attn.0/norm/Reshape_output_0: 3dfa423d
/attn.0/norm/InstanceNormalization_output_0: 3d40e6df
/norm_out/InstanceNormalization_output_0: 3d4cfc6b
/block.1/temb_proj_5/Gemm_output_0: 3e2bb0d0
/attn.0/norm/Reshape_1_output_0: 3d40e6df
onnx::Mul_1784_output: 3b8b92a0
ONNXTRT_Broadcast_186_output: 3b8b92a0
/attn.0/norm/Mul_output_0: 3c89e3ec
onnx::Add_1785_output: 3bb448ab
ONNXTRT_Broadcast_188_output: 3bb448ab
/attn.0/norm/Add_output_0: 3c86a2d6
/attn.0/q/Conv_output_0: 3d3b02f8
/attn.0/k/Conv_output_0: 3d2e8717
/attn.0/v/Conv_output_0: 3d140eab
/block.2/norm1_2/Reshape_output_0: 3ef9eeef
/attn.2/Reshape_2_output_0: 3dccc31c
/attn.0_1/Softmax_output: 3a29ce1a
/block.2/norm2_3/Mul_output_0: 3db336f8
up.2.block.0.temb_proj.weight_output: 3ba85cc2
/block.2_2/Unsqueeze_1_output_0: 3f0e4654
/attn.2/MatMul_output_0: 3f83a0a7
/attn.1/norm_1/Reshape_output_0: 3f200ffd
/attn.1_1/Reshape_1_output_0: 3d6b1505
/block.2_3/Add_1_output_0: 40ba6e58
/attn.2/proj_out/Conv_output_0: 3ed12137
/block.2/norm1_2/InstanceNormalization_output_0: 3d837979
/attn.2/norm/InstanceNormalization_output_0: 3d3a466d
/upsample_2/Resize_output_0: 3f570886
/block.2_2/Sigmoid_output_0: 3c03be5e
/attn.0_1/MatMul_1_output_0: 3d5c63ee
ONNXTRT_Broadcast_1132_output: 3c584f4b
/block.0/temb_proj_7/Gemm_output: 3eadefae
ONNXTRT_Broadcast_840_output: 3b58d5b4
/block.1/conv1_5/Conv_output_0: 3f0d1d80
/block.1/norm1_5/Mul_output_0: 3d8470e7
ONNXTRT_Broadcast_868_output: 3c477af5
up.2.block.1.temb_proj.weight_output: 3bda0ce4
/block.1_5/Sigmoid_output_0: 3c0111c3
ONNXTRT_Broadcast_836_output: 3c4dd28d
/block.1_7/Sigmoid_1_output_0: 3c0209d2
/attn.0/Reshape_output_0: 3d3b02f8
/attn.0/Transpose_output_0: 3d3b02f8
/attn.0/Reshape_1_output_0: 3d2e8717
/attn.0/MatMul_output_0: 3f8e22a6
/attn.0/Constant_4_output_0_output: 3a010a14
ONNXTRT_Broadcast_201_output: 3a010a14
/attn.0/Mul_1_output_0: 3d8e22a6
/attn.0/Softmax_output: 3a2fc4a8
/attn.0/Softmax_output_0: 3a2fc4a8
/upsample/conv_1/Conv_output_0: 3f432a4c
/block.2_1/Unsqueeze_1_output_0: 3ea3ffca
/attn.0/Reshape_2_output_0: 3d140eab
/attn.0/Transpose_1_output_0: 3a2fc4a8
/attn.0/MatMul_1_output_0: 3cbd68d6
/block.2/norm1_1/Reshape_output_0: 3e92c6b6
ONNXTRT_Broadcast_906_output: 3c8198d4
onnx::Add_1846_output: 3c479295
onnx::Mul_1883_output: 3cb709b7
/block.1/norm1_5/Reshape_1_output_0: 3d721c24
/attn.0/Reshape_3_output_0: 3cbd68d6
/attn.0/proj_out/Conv_output_0: 3daea776
/attn.0/Add_output_0: 3ddf7047
/block.1/norm1_1/Reshape_output_0: 3ddf7047
/block.1/norm1_1/InstanceNormalization_output_0: 3d5b8649
/block.2/nin_shortcut_3/Conv_output_0: 40b53e4e
/block.2/conv1_1/Conv_output_0: 3f94775b
/block.1/norm1_1/Reshape_1_output_0: 3d5b8649
onnx::Mul_1786_output: 3c79689b
ONNXTRT_Broadcast_218_output: 3c79689b
/block.1/norm1_1/Mul_output_0: 3d778a1c
onnx::Add_1787_output: 3bc111af
ONNXTRT_Broadcast_220_output: 3bc111af
/block.1/norm1_1/Add_output_0: 3d8296e8
/block.1_1/Sigmoid_output_0: 3c01af74
/block.1_1/Mul_output_0: 3d02eba9
/block.1/conv1_1/Conv_output_0: 3ed8ff72
down.1.block.1.temb_proj.weight_output: 3be84944
/block.1/temb_proj_1/Gemm_output: 3fd33a72
ONNXTRT_Broadcast_222_output: 3b5c3af6
/block.1/temb_proj_1/Gemm_output_0: 3f94ac86
/Sigmoid_1_output_0: 3c01ef7b
ONNXTRT_Broadcast_958_output: 3b669c26
ONNXTRT_Broadcast_990_output: 3c3e32ea
/block.0/conv2_6/Conv_output_0: 3e9cf444
/attn.2/Reshape_1_output_0: 3d573ec9
/attn.0_1/MatMul_output_0: 3fc56162
/block.1_1/Unsqueeze_output_0: 3f94ac86
ONNXTRT_Broadcast_1064_output: 3b7a7421
/block.2/norm2_1/Reshape_1_output_0: 3d8d398a
/block.2/norm1_2/Reshape_1_output_0: 3d837979
/upsample/conv/Conv_output_0: 3f942cfe
ONNXTRT_Broadcast_876_output: 3c5eda69
/block.1_1/Unsqueeze_1_output_0: 3f94ac86
/block.1_1/Add_output_0: 3fbd7b8b
/block.1/norm2_1/Reshape_output_0: 3fbd7b8b
/block.1/norm2_1/InstanceNormalization_output_0: 3d27f356
/block.1/norm1_5/InstanceNormalization_output_0: 3d721c24
/block.1/norm2_1/Reshape_1_output_0: 3d27f356
onnx::Mul_1788_output: 3c6cbc2f
ONNXTRT_Broadcast_248_output: 3c6cbc2f
/block.1/norm2_1/Mul_output_0: 3d612c50
onnx::Add_1789_output: 3ba3c275
ONNXTRT_Broadcast_250_output: 3ba3c275
/block.1/norm2_1/Add_output_0: 3d58e9cc
/block.1_1/Sigmoid_1_output_0: 3bf40a42
/block.1_1/Mul_1_output_0: 3c31e9b2
/block.1/conv2_1/Conv_output_0: 3d3d01bd
/block.1_1/Add_1_output_0: 3de11b07
/attn.1/norm/Reshape_output_0: 3de11b07
/attn.1/norm/InstanceNormalization_output_0: 3d3f1a71
/block.0/norm1_6/Mul_output_0: 3d897490
/block.1/norm1_5/Reshape_output_0: 3ecf086e
/attn.1/norm/Reshape_1_output_0: 3d3f1a71
onnx::Mul_1790_output: 3b73f83d
ONNXTRT_Broadcast_258_output: 3b73f83d
/attn.1/norm/Mul_output_0: 3c92af9b
onnx::Add_1791_output: 3ba90873
ONNXTRT_Broadcast_260_output: 3ba90873
/attn.1/norm/Add_output_0: 3c854e08
/attn.1/q/Conv_output_0: 3d3197be
/attn.1/k/Conv_output_0: 3d2e4e4e
/attn.1/v/Conv_output_0: 3d102b95
ONNXTRT_Broadcast_920_output: 3b7bdd87
/block.0/conv2_5/Conv_output_0: 3ed87025
onnx::Mul_1849_output: 3c5eda69
ONNXTRT_Broadcast_1216_output: 3af79513
/attn.1_1/Softmax_output_0: 3a478570
/Concat_5_output_0: 3ecf086e
/block.0_5/Mul_1_output_0: 3ce8aec1
/block.2_3/Unsqueeze_1_output_0: 3e864c78
ONNXTRT_Broadcast_828_output: 3c6fcbd8
/block.0/nin_shortcut_2/Conv_output_0: 3e75dd48
/block.0/norm2_5/Add_output_0: 3dd25542
/block.2/conv1_3/Conv_output_0: 3e487acf
ONNXTRT_Broadcast_826_output: 3cacafa2
/block.0/norm2_5/Reshape_output_0: 3f269146
/block.0/norm2_5/Reshape_1_output_0: 3d40d821
/attn.0/k_1/Conv_output_0: 3d68a716
onnx::Add_1880_output: 3c3f43a0
/block.1_5/Unsqueeze_1_output_0: 3e2bb0d0
/attn.2/norm/Reshape_output_0: 3f648981
/block.1/norm2_5/Reshape_1_output_0: 3d58404e
/block.2_3/Sigmoid_output_0: 3bffe8f2
/block.0/norm2_6/Mul_output_0: 3d9a09ef
/block.0_7/Add_output_0: 3ec01452
/attn.1/Reshape_output_0: 3d3197be
/attn.1/Transpose_output_0: 3d3197be
/attn.1/Reshape_1_output_0: 3d2e4e4e
/attn.1/MatMul_output_0: 3fcb8e56
/attn.1/Constant_4_output_0_output: 3a010a14
ONNXTRT_Broadcast_273_output: 3a010a14
/attn.1/Mul_1_output_0: 3dcb8e56
/attn.1/Softmax_output: 3a30e6df
/attn.1/Softmax_output_0: 3a30e6df
up.1.block.0.temb_proj.weight_output: 3bf8619a
/block.0_6/Sigmoid_output_0: 3c011013
/attn.1/Reshape_2_output_0: 3d102b95
/attn.1/Transpose_1_output_0: 3a30e6df
/attn.1/MatMul_1_output_0: 3cbeb7b9
ONNXTRT_Broadcast_1244_output: 3c47e068
ONNXTRT_Broadcast_1060_output: 3c426c31
/block.0_5/Unsqueeze_1_output_0: 3e2271ef
/block.1/conv2_6/Conv_output_0: 3e37f5f2
/attn.1/Reshape_3_output_0: 3cbeb7b9
/attn.1/proj_out/Conv_output_0: 3dc85429
/attn.1/Add_output_0: 3db2ed8e
/Concat_6_output_0: 3e92c6b6
/attn.2/Reshape_output_0: 3d6468cd
/Concat_10_output_0: 3fd10414
/attn.2/MatMul_1_output_0: 3d926607
/attn.0_1/Mul_1_output_0: 3dc56162
onnx::Add_1842_output: 3c40b959
ONNXTRT_Broadcast_1115_output: 3a010a14
/block.2/temb_proj_1/Gemm_output_0: 3ea3ffca
/block.1_6/Mul_output_0: 3c94a89b
/norm_out/Reshape_output_0: 40ba6e58
/attn.2/Add_output_0: 3f570886
/upsample/conv_2/Conv_output_0: 4090585d
up.1.block.2.temb_proj.weight_output: 3bfd74d0
/block.0/norm1_7/InstanceNormalization_output_0: 3d894cb2
/block.2/norm2_2/InstanceNormalization_output_0: 3d38df31
/block.0/norm1_7/Add_output_0: 3d494a37
/block.1/conv1_6/Conv_output_0: 3ec7bc7b
ONNXTRT_Broadcast_1102_output: 3b8f3652
/attn.1_1/Constant_4_output_0_output: 3a010a14
/block.0_6/Mul_1_output_0: 3ca4345d
/block.2/norm2_2/Mul_output_0: 3d80de73
/block.2/temb_proj_2/Gemm_output: 3f152321
ONNXTRT_Broadcast_918_output: 3c8cc653
/attn.1/q_1/Conv_output_0: 3d704f6c
/block.0/norm2_6/Add_output_0: 3da99f2f
/block.0_7/Unsqueeze_1_output_0: 3eabf96c
/block.1/norm1_6/Reshape_output_0: 3ebd78b3
ONNXTRT_Broadcast_796_output: 3c2a7bec
/block.1/norm2_6/Add_output_0: 3d96afc3
/block.1/conv2_5/Conv_output_0: 3e723123
ONNXTRT_Broadcast_878_output: 3c523152
ONNXTRT_Broadcast_1018_output: 3c9c9ebe
/block.0_7/Mul_output_0: 3cd44bb6
/block.0/norm1_7/Reshape_output_0: 3fd10414
/block.0/temb_proj_5/Gemm_output_0: 3e2271ef
/block.0/temb_proj_5/Gemm_output: 3e391576
/block.0/conv1_5/Conv_output_0: 3f019369
/block.0_5/Sigmoid_output_0: 3c084af1
/block.0/norm1_5/Mul_output_0: 3d5c2d68
ONNXTRT_Broadcast_1100_output: 3ba4966c
ONNXTRT_Broadcast_798_output: 3c40b959
onnx::Mul_1841_output: 3c2a7bec
/block.2/norm2_3/Reshape_1_output_0: 3d3a6992
onnx::Mul_1858_output: 3b8adbd9
/block.1/norm2_7/Mul_output_0: 3da454d2
/downsample_1/Pad_output_0: 3db2ed8e
/downsample/conv_1/Conv_output_0: 3e2b6069
/block.0/norm1_2/Reshape_output_0: 3e2b6069
/block.0/norm1_2/InstanceNormalization_output_0: 3d3e94f2
/attn.2/norm/Mul_output_0: 3cd22dcd
/block.0/norm1_6/Reshape_1_output_0: 3d80978d
/block.0/norm1_2/Reshape_1_output_0: 3d3e94f2
onnx::Mul_1797_output: 3c330a89
ONNXTRT_Broadcast_347_output: 3c330a89
/block.0/norm1_2/Mul_output_0: 3d6696f4
onnx::Add_1798_output: 3bbf682a
ONNXTRT_Broadcast_349_output: 3bbf682a
/block.0/norm1_2/Add_output_0: 3d76c475
/block.0_2/Sigmoid_output_0: 3c08cf01
/block.0_2/Mul_output_0: 3cc012c7
/block.0/conv1_2/Conv_output_0: 3f1c4419
down.2.block.0.temb_proj.weight_output: 3bb2cf25
/block.0/temb_proj_2/Gemm_output: 3e6f2352
ONNXTRT_Broadcast_351_output: 3b0a9250
/block.0/temb_proj_2/Gemm_output_0: 3e5bf86f
onnx::Mul_1870_output: 3ba4966c
/block.2/norm2_2/Reshape_1_output_0: 3d38df31
onnx::Mul_1862_output: 3c9c9ebe
ONNXTRT_Broadcast_948_output: 3c25d518
/block.2_1/Add_1_output_0: 3e862348
/block.0_2/Unsqueeze_output_0: 3e5bf86f
/Concat_12_output_0: 3f8fbf1a
/block.1_6/Sigmoid_output_0: 3c0027c4
/block.2_1/Unsqueeze_output_0: 3ea3ffca
/block.2_3/Unsqueeze_output_0: 3e864c78
/block.2/norm1_1/Reshape_1_output_0: 3d478c4a
/block.0_2/Unsqueeze_1_output_0: 3e5bf86f
/block.0_2/Add_output_0: 3f625128
/block.0/norm2_2/Reshape_output_0: 3f625128
/block.0/norm2_2/InstanceNormalization_output_0: 3d70dc60
ONNXTRT_Broadcast_1202_output: 3ccf5034
/block.0/norm1_5/InstanceNormalization_output_0: 3d5c5dd1
/block.0/norm2_2/Reshape_1_output_0: 3d70dc60
onnx::Mul_1799_output: 3c453e81
ONNXTRT_Broadcast_377_output: 3c453e81
/block.0/norm2_2/Mul_output_0: 3d85f752
onnx::Add_1800_output: 3bc83456
ONNXTRT_Broadcast_379_output: 3bc83456
/block.0/norm2_2/Add_output_0: 3d87d67a
/block.0_2/Sigmoid_1_output_0: 3bff476e
/block.0_2/Mul_1_output_0: 3c678c1f
/block.0/conv2_2/Conv_output_0: 3d9e3d05
/block.0_2/Add_1_output_0: 3e0eafc8
/block.1/norm1_2/Reshape_output_0: 3e0eafc8
/block.1/norm1_2/InstanceNormalization_output_0: 3d3349cd
/block.1/norm1_2/Reshape_1_output_0: 3d3349cd
onnx::Mul_1801_output: 3c37c33f
ONNXTRT_Broadcast_387_output: 3c37c33f
/block.1/norm1_2/Mul_output_0: 3d50c835
onnx::Add_1802_output: 3bc5e0ca
ONNXTRT_Broadcast_389_output: 3bc5e0ca
/block.1/norm1_2/Add_output_0: 3d568b05
/block.1_2/Sigmoid_output_0: 3c00da14
/block.1_2/Mul_output_0: 3cc265d8
/block.1/conv1_2/Conv_output_0: 3edf7ce7
down.2.block.1.temb_proj.weight_output: 3bd18b18
/block.1/temb_proj_2/Gemm_output: 3e7816c2
ONNXTRT_Broadcast_391_output: 3af79f61
/block.1/temb_proj_2/Gemm_output_0: 3e680508
onnx::Add_1876_output: 3c375f04
/block.0_7/Unsqueeze_output_0: 3eabf96c
onnx::Mul_1885_output: 3d04ebcf
ONNXTRT_Broadcast_1043_output: 3a010a14
/block.1_2/Unsqueeze_output_0: 3e680508
/attn.0_1/Softmax_output_0: 3a29ce1a
/block.2_3/Sigmoid_1_output_0: 3c0313e0
/block.0_5/Mul_output_0: 3cb232b4
/block.2_2/Add_output_0: 3f38f715
/attn.2/Constant_4_output_0_output: 3a010a14
/block.1_2/Unsqueeze_1_output_0: 3e680508
/block.1_2/Add_output_0: 3f037a84
/block.1/norm2_2/Reshape_output_0: 3f037a84
/block.1/norm2_2/InstanceNormalization_output_0: 3d55b8b2
/attn.0_1/Transpose_1_output_0: 3a29ce1a
onnx::Mul_1873_output: 3c584f4b
/block.1/norm2_2/Reshape_1_output_0: 3d55b8b2
onnx::Mul_1803_output: 3c67ade7
ONNXTRT_Broadcast_417_output: 3c67ade7
/block.1/norm2_2/Mul_output_0: 3d5a5d8d
onnx::Add_1804_output: 3b8a4834
ONNXTRT_Broadcast_419_output: 3b8a4834
/block.1/norm2_2/Add_output_0: 3d5c6d49
/block.1_2/Sigmoid_1_output_0: 3bfe70f0
/block.1_2/Mul_1_output_0: 3c729825
/block.1/conv2_2/Conv_output_0: 3d9c831e
/block.1_2/Add_1_output_0: 3e0a5564
/block.1/nin_shortcut_1/Conv_output_0: 3e206284
/attn.1_1/MatMul_1_output_0: 3d90d9c6
/attn.2/Mul_1_output_0: 3d83a0a7
/attn.1_1/Reshape_output_0: 3d704f6c
onnx::Add_1867_output: 3bd6d1bb
/block.1_5/Mul_1_output_0: 3cc3da8b
/block.1_6/Add_1_output_0: 3f200ffd
/Concat_7_output_0: 3ef99024
/block.2_1/Add_output_0: 3f9a2e23
/block.1/norm2_6/InstanceNormalization_output_0: 3d1f918b
/block.2_2/Mul_1_output_0: 3cb27606
onnx::Add_1852_output: 3c0a9422
ONNXTRT_Broadcast_838_output: 3c479295
/block.2/norm2_3/Reshape_output_0: 3e934d27
onnx::Mul_1845_output: 3c4dd28d
/block.1/temb_proj_6/Gemm_output_0: 3ef9759d
/block.2/conv1_2/Conv_output_0: 3f04a2a0
/attn.2/q/Conv_output_0: 3d6468cd
ONNXTRT_Broadcast_1134_output: 3c7e5164
/block.0/temb_proj_7/Gemm_output_0: 3eabf96c
/block.1/norm1_6/Mul_output_0: 3d6e95a5
/block.0/norm2_7/Reshape_output_0: 3ec01452
/attn.1_1/Reshape_2_output_0: 3dc09ba1
up.2.block.2.temb_proj.weight_output: 3be40232
/block.0/norm1_7/Reshape_1_output_0: 3d894cb2
onnx::Mul_1868_output: 3c893e8e
/block.0/conv1_7/Conv_output_0: 3ea7542a
/attn.1_1/MatMul_output_0: 3fd9cfa5
onnx::Mul_1860_output: 3c5c58e2
/norm_out/Reshape_1_output_0: 3d4cfc6b
/block.0/norm2_7/InstanceNormalization_output_0: 3d2fbe54
/block.2/norm1_3/InstanceNormalization_output_0: 3d49aac8
/block.1/norm2_6/Reshape_1_output_0: 3d1f918b
onnx::Add_1871_output: 3b8f3652
onnx::Mul_1854_output: 3c51cef7
/block.2/nin_shortcut_1/Conv_output_0: 3e214fc7
ONNXTRT_Broadcast_1020_output: 3c2b0333
/block.0_6/Add_1_output_0: 3f23044e
onnx::Add_1886_output: 3cb33291
/block.0_6/Unsqueeze_1_output_0: 3ed1c574
/block.0/norm2_7/Add_output_0: 3dbad473
/block.1/norm1_6/InstanceNormalization_output_0: 3d5a06f6
onnx::Mul_1851_output: 3c8198d4
onnx::Mul_1866_output: 3c426c31
/block.0/norm1_5/Reshape_output_0: 3f6a0ca4
/upsample/Resize_output_0: 3f070101
/block.2/norm1_1/Mul_output_0: 3d986d0f
/downsample_2/Pad_output_0: 3e0a5564
/downsample/conv_2/Conv_output_0: 3ed8fe88
/block.0/norm1_3/Reshape_output_0: 3ed8fe88
/block.0/norm1_3/InstanceNormalization_output_0: 3d2fdd7a
/block.1/norm2_7/Add_output_0: 3da16b44
/block.0/norm1_3/Reshape_1_output_0: 3d2fdd7a
onnx::Mul_1810_output: 3c180c11
ONNXTRT_Broadcast_484_output: 3c180c11
/block.0/norm1_3/Mul_output_0: 3d258888
onnx::Add_1811_output: 3b9d7a34
ONNXTRT_Broadcast_486_output: 3b9d7a34
/block.0/norm1_3/Add_output_0: 3d37d9f1
/block.0_3/Sigmoid_output_0: 3c039528
/block.0_3/Mul_output_0: 3cbefd35
/block.0/conv1_3/Conv_output_0: 3e6197f5
down.3.block.0.temb_proj.weight_output: 3b7606f6
/block.0/temb_proj_3/Gemm_output: 3de9cd5e
ONNXTRT_Broadcast_488_output: 3aa58dd5
/block.0/temb_proj_3/Gemm_output_0: 3e0157a9
ONNXTRT_Broadcast_1092_output: 3bfc744c
/block.2_1/Mul_output_0: 3ce823b9
onnx::Add_1855_output: 3c8cc653
/attn.1/norm_1/Add_output_0: 3ca1b5b1
/block.0_3/Unsqueeze_output_0: 3e0157a9
/block.2/norm2_1/InstanceNormalization_output_0: 3d8d398a
/block.0/norm2_6/Reshape_output_0: 3f23e028
/attn.0_1/Add_output_0: 3f05224f
/block.2/norm1_1/InstanceNormalization_output_0: 3d478c4a
/block.0_3/Unsqueeze_1_output_0: 3e0157a9
/block.0_3/Add_output_0: 3e6c4beb
/block.0/norm2_3/Reshape_output_0: 3e6c4beb
/block.0/norm2_3/InstanceNormalization_output_0: 3d2417c5
/block.2_3/Mul_1_output_0: 3d276306
/block.2/conv2_3/Conv_output_0: 3f8f8d38
/block.0/norm2_3/Reshape_1_output_0: 3d2417c5
onnx::Mul_1812_output: 3c675914
ONNXTRT_Broadcast_514_output: 3c675914
/block.0/norm2_3/Mul_output_0: 3d89c29b
onnx::Add_1813_output: 3c05cfbf
ONNXTRT_Broadcast_516_output: 3c05cfbf
/block.0/norm2_3/Add_output_0: 3d88dce8
/block.0_3/Sigmoid_1_output_0: 3bff0c6e
/block.0_3/Mul_1_output_0: 3cb1b93e
/block.0/conv2_3/Conv_output_0: 3e2e0aea
/block.0_3/Add_1_output_0: 3ecaf729
/block.1/norm1_3/Reshape_output_0: 3ecaf729
/block.1/norm1_3/InstanceNormalization_output_0: 3d1176be
/block.1_5/Unsqueeze_output_0: 3e2bb0d0
/block.1/norm1_3/Reshape_1_output_0: 3d1176be
onnx::Mul_1814_output: 3c219013
ONNXTRT_Broadcast_524_output: 3c219013
/block.1/norm1_3/Mul_output_0: 3d1db825
onnx::Add_1815_output: 3b9ec175
ONNXTRT_Broadcast_526_output: 3b9ec175
/block.1/norm1_3/Add_output_0: 3d4a3a36
/block.1_3/Sigmoid_output_0: 3c03cc18
/block.1_3/Mul_output_0: 3cb1a7f0
/block.1/conv1_3/Conv_output_0: 3e6ab76c
down.3.block.1.temb_proj.weight_output: 3b70413f
/block.1/temb_proj_3/Gemm_output: 3de9c06d
ONNXTRT_Broadcast_528_output: 3ab314d2
/block.1/temb_proj_3/Gemm_output_0: 3de80aeb
/attn.0/v_1/Conv_output_0: 3d8c6128
/block.0/norm2_5/InstanceNormalization_output_0: 3d40d821
onnx::Add_1857_output: 3c25d518
/attn.1/norm_1/InstanceNormalization_output_0: 3d2cf685
/block.0/norm1_6/Add_output_0: 3d9672ed
/block.1_3/Unsqueeze_output_0: 3de80aeb
onnx::Mul_1875_output: 3cfa0104
/block.1/temb_proj_6/Gemm_output: 3f2ac645
/attn.2/v/Conv_output_0: 3dccc31c
up.1.block.1.temb_proj.weight_output: 3c06f043
noise_pred: 3d670a30
/block.1_3/Unsqueeze_1_output_0: 3de80aeb
/block.1_3/Add_output_0: 3e7734f0
/block.1/norm2_3/Reshape_output_0: 3e7734f0
/block.1/norm2_3/InstanceNormalization_output_0: 3d0bcc41
/block.0_7/Sigmoid_1_output_0: 3c010100
/block.0_7/Mul_1_output_0: 3d10ebf5
/block.1/norm2_3/Reshape_1_output_0: 3d0bcc41
onnx::Mul_1816_output: 3c7ea67c
ONNXTRT_Broadcast_554_output: 3c7ea67c
/block.1/norm2_3/Mul_output_0: 3d75069c
onnx::Add_1817_output: 3c14b43e
ONNXTRT_Broadcast_556_output: 3c14b43e
/block.1/norm2_3/Add_output_0: 3d8bda01
/block.1_3/Sigmoid_1_output_0: 3c0803e9
/block.1_3/Mul_1_output_0: 3cd182d5
/block.1/conv2_3/Conv_output_0: 3e22c507
/block.1_3/Add_1_output_0: 3f12d21a
/block_1/norm1/Reshape_output_0: 3f12d21a
/block_1/norm1/InstanceNormalization_output_0: 3d1796d0
/block.0/conv2_7/Conv_output_0: 3f024b16
/block.0/nin_shortcut_4/Conv_output_0: 401ac1be
/block_1/norm1/Reshape_1_output_0: 3d1796d0
onnx::Mul_1818_output: 3c31fc85
ONNXTRT_Broadcast_564_output: 3c31fc85
/block_1/norm1/Mul_output_0: 3d3a985f
onnx::Add_1819_output: 3bb6bfa9
ONNXTRT_Broadcast_566_output: 3bb6bfa9
/block_1/norm1/Add_output_0: 3d35f31b
/block_1/Sigmoid_output_0: 3c036592
/block_1/Mul_output_0: 3cd3e351
/block_1/conv1/Conv_output_0: 3e54905a
mid.block_1.temb_proj.weight_output: 3b7fa774
/block_1/temb_proj/Gemm_output: 3df20090
ONNXTRT_Broadcast_568_output: 3ad8663b
/block_1/temb_proj/Gemm_output_0: 3de60708
/block.2/temb_proj_3/Gemm_output: 3e8e527a
/attn.0/q_1/Conv_output_0: 3d4f887e
/attn.0_1/Reshape_3_output_0: 3d5c63ee
ONNXTRT_Broadcast_946_output: 3c9b19f6
/block.2_2/Add_1_output_0: 3f648981
/block_1/Unsqueeze_output_0: 3de60708
/Concat_9_output_0: 3ef9eeef
/attn.2/Transpose_1_output_0: 39f77280
/attn.0/norm_1/InstanceNormalization_output_0: 3d3857cc
/block.2/norm2_3/InstanceNormalization_output_0: 3d3a6992
ONNXTRT_Broadcast_800_output: 3b1346a2
/block.2/norm2_2/Reshape_output_0: 3f38f715
/block_1/Unsqueeze_1_output_0: 3de60708
/block_1/Add_output_0: 3e56f2ed
/block_1/norm2/Reshape_output_0: 3e56f2ed
/block_1/norm2/InstanceNormalization_output_0: 3d0c9c2b
/block.0_7/Add_1_output_0: 4027da17
/Concat_11_output_0: 3fc3d767
/block_1/norm2/Reshape_1_output_0: 3d0c9c2b
onnx::Mul_1820_output: 3c81e81a
ONNXTRT_Broadcast_594_output: 3c81e81a
/block_1/norm2/Mul_output_0: 3d850e89
onnx::Add_1821_output: 3c213570
ONNXTRT_Broadcast_596_output: 3c213570
/block_1/norm2/Add_output_0: 3d97da1a
/block_1/Sigmoid_1_output_0: 3c009d47
/block_1/Mul_1_output_0: 3d0062a4
/block_1/conv2/Conv_output_0: 3e3154ac
/block_1/Add_1_output_0: 3edfb46d
/attn_1/norm/Reshape_output_0: 3edfb46d
/attn_1/norm/InstanceNormalization_output_0: 3d0c68e7
/block.1/norm1_7/Reshape_output_0: 3fc3d767
/attn_1/norm/Reshape_1_output_0: 3d0c68e7
onnx::Mul_1822_output: 3b66f55a
ONNXTRT_Broadcast_604_output: 3b66f55a
/attn_1/norm/Mul_output_0: 3c4a35d4
onnx::Add_1823_output: 3a553aae
ONNXTRT_Broadcast_606_output: 3a553aae
/attn_1/norm/Add_output_0: 3c59bf18
/attn_1/q/Conv_output_0: 3cd962d0
/attn_1/k/Conv_output_0: 3d23a303
/attn_1/v/Conv_output_0: 3cf6c2c8
/block.1/temb_proj_5/Gemm_output: 3e283e6e
/attn.1/norm_1/Mul_output_0: 3ca43ad6
ONNXTRT_Broadcast_1172_output: 3c46b6fd
/block.1_5/Mul_output_0: 3caa319c
/block.2/temb_proj_2/Gemm_output_0: 3f0e4654
/block.1/norm1_7/Mul_output_0: 3d28b3f4
/block.1/norm1_7/Reshape_1_output_0: 3d686b91
/attn.1_1/Transpose_1_output_0: 3a478570
/block.1_6/Sigmoid_1_output_0: 3c02c700
/block.1/norm1_7/InstanceNormalization_output_0: 3d686b91
onnx::Mul_1877_output: 3c46b6fd
/block.1_6/Unsqueeze_1_output_0: 3ef9759d
onnx::Add_1878_output: 3c109599
/block.2/conv2_2/Conv_output_0: 3e920673
ONNXTRT_Broadcast_1174_output: 3c109599
/block.1/conv1_7/Conv_output_0: 3e50b312
/block.1_7/Unsqueeze_output_0: 3e876475
/block.1/norm1_7/Add_output_0: 3d203451
up.0.block.1.temb_proj.weight_output: 3bbd699f
/block.2/norm2_1/Mul_output_0: 3dc15f31
/block.1_7/Sigmoid_output_0: 3c013a54
/block.1/temb_proj_7/Gemm_output: 3e879f5d
/block.1/norm1_5/Add_output_0: 3daa1b2e
/block.2_2/Mul_output_0: 3cea43b6
/attn_1/Reshape_output_0: 3cd962d0
/attn_1/Transpose_output_0: 3cd962d0
/attn_1/Reshape_1_output_0: 3d23a303
/attn_1/MatMul_output_0: 3f6ac8fc
/attn_1/Constant_4_output_0_output: 3a010a14
ONNXTRT_Broadcast_619_output: 3a010a14
/attn_1/Mul_1_output_0: 3d6ac8fc
/attn_1/Softmax_output: 3bba1ed9
/attn_1/Softmax_output_0: 3bba1ed9
/attn.2/k/Conv_output_0: 3d573ec9
/attn_1/Reshape_2_output_0: 3cf6c2c8
/attn_1/Transpose_1_output_0: 3bba1ed9
/attn_1/MatMul_1_output_0: 3c9308fe
/block.1_7/Mul_output_0: 3ca429f6
ONNXTRT_Broadcast_1176_output: 3aeff97d
/block.1/temb_proj_7/Gemm_output_0: 3e876475
/attn_1/Reshape_3_output_0: 3c9308fe
/attn_1/proj_out/Conv_output_0: 3d969bbd
/attn_1/Add_output_0: 3eeaac42
/block_2/norm1/Reshape_output_0: 3eeaac42
/block_2/norm1/InstanceNormalization_output_0: 3d0af4c2
onnx::Add_1874_output: 3c7e5164
ONNXTRT_Broadcast_1136_output: 3b0eb810
/block_2/norm1/Reshape_1_output_0: 3d0af4c2
onnx::Mul_1824_output: 3c317775
ONNXTRT_Broadcast_636_output: 3c317775
/block_2/norm1/Mul_output_0: 3d1d52c6
onnx::Add_1825_output: 3bd6c62f
ONNXTRT_Broadcast_638_output: 3bd6c62f
/block_2/norm1/Add_output_0: 3d3479e2
/block_2/Sigmoid_output_0: 3bfe29bf
/block_2/Mul_output_0: 3cb24392
/block_2/conv1/Conv_output_0: 3e4b1ae5
mid.block_2.temb_proj.weight_output: 3b61b0fe
/block_2/temb_proj/Gemm_output: 3dbf336a
ONNXTRT_Broadcast_640_output: 3b0c3014
/block_2/temb_proj/Gemm_output_0: 3dbf5f64
/attn.0_1/Constant_4_output_0_output: 3a010a14
/attn.0/norm_1/Add_output_0: 3c9bb337
/block.2/norm1_3/Mul_output_0: 3d0d5e45
/block.0/norm2_6/Reshape_1_output_0: 3d2f8b29
/block.2/norm1_3/Add_output_0: 3d134e66
/block.0/temb_proj_6/Gemm_output_0: 3ed1c574
/block_2/Unsqueeze_output_0: 3dbf5f64
/block.2_2/Sigmoid_1_output_0: 3c01be91
/Concat_4_output_0: 3f6a0ca4
/block.2/norm2_1/Add_output_0: 3dc9a015
/attn.1_1/Softmax_output: 3a478570
/block.2/norm1_2/Mul_output_0: 3d80cf3b
/block_2/Unsqueeze_1_output_0: 3dbf5f64
/block_2/Add_output_0: 3e5ea93d
/block_2/norm2/Reshape_output_0: 3e5ea93d
/block_2/norm2/InstanceNormalization_output_0: 3d1c9c5b
ONNXTRT_Broadcast_1252_output: 3d04ebcf
/block.0_6/Unsqueeze_output_0: 3ed1c574
/block_2/norm2/Reshape_1_output_0: 3d1c9c5b
onnx::Mul_1826_output: 3c9609b0
ONNXTRT_Broadcast_666_output: 3c9609b0
/block_2/norm2/Mul_output_0: 3d7bf573
onnx::Add_1827_output: 3c17a43a
ONNXTRT_Broadcast_668_output: 3c17a43a
/block_2/norm2/Add_output_0: 3d8a829d
/block_2/Sigmoid_1_output_0: 3c00e511
/block_2/Mul_1_output_0: 3cd30a35
/block_2/conv2/Conv_output_0: 3e59f980
/block_2/Add_1_output_0: 3ee5f349
/Concat_1_output_0: 3f054083
/block.0/norm1_4/Reshape_output_0: 3f054083
/block.0/norm1_4/InstanceNormalization_output_0: 3d3183f5
/block.1_7/Unsqueeze_1_output_0: 3e876475
/block.1_7/Add_output_0: 3ea4c5ea
/block.0/norm1_4/Reshape_1_output_0: 3d3183f5
onnx::Mul_1828_output: 3c500bf2
ONNXTRT_Broadcast_676_output: 3c500bf2
/block.0/norm1_4/Mul_output_0: 3d4436b9
onnx::Add_1829_output: 3bfbc1fa
ONNXTRT_Broadcast_678_output: 3bfbc1fa
/block.0/norm1_4/Add_output_0: 3d59f1e4
/block.0_4/Sigmoid_output_0: 3c0704b1
/block.0_4/Mul_output_0: 3c98e920
/block.0/conv1_4/Conv_output_0: 3eb64881
up.3.block.0.temb_proj.weight_output: 3b5318a4
/block.0/temb_proj_4/Gemm_output: 3da88248
ONNXTRT_Broadcast_680_output: 3ab0d687
/block.0/temb_proj_4/Gemm_output_0: 3dbf34fc
/block.0_5/Add_1_output_0: 3f1be028
/block.0_5/Sigmoid_1_output_0: 3c00e30a
/block.2/temb_proj_3/Gemm_output_0: 3e864c78
/block.0/norm2_5/Mul_output_0: 3da689ef
onnx::Mul_1843_output: 3cacafa2
/block.0_4/Unsqueeze_output_0: 3dbf34fc
ONNXTRT_Broadcast_1204_output: 3c3f43a0
/block.1_5/Add_output_0: 3f3efb07
onnx::Mul_1847_output: 3ca1ae87
/block.0_4/Unsqueeze_1_output_0: 3dbf34fc
/block.0_4/Add_output_0: 3ecdd932
/block.0/norm2_4/Reshape_output_0: 3ecdd932
/block.0/norm2_4/InstanceNormalization_output_0: 3d0a4612
/block.1/norm2_7/Reshape_output_0: 3ea4c5ea
/block.0/norm2_4/Reshape_1_output_0: 3d0a4612
onnx::Mul_1830_output: 3ca41246
ONNXTRT_Broadcast_706_output: 3ca41246
/block.0/norm2_4/Mul_output_0: 3da8a85f
onnx::Add_1831_output: 3c2ca880
ONNXTRT_Broadcast_708_output: 3c2ca880
/block.0/norm2_4/Add_output_0: 3da6bd3f
/block.0_4/Sigmoid_1_output_0: 3c00fd9c
/block.0_4/Mul_1_output_0: 3d10a97e
/block.0/conv2_4/Conv_output_0: 3ee4cc42
/block.0/nin_shortcut_1/Conv_output_0: 3ed66ee1
/block.0_4/Add_1_output_0: 3f390719
/Concat_2_output_0: 3f2e7825
/block.1/norm1_4/Reshape_output_0: 3f2e7825
/block.1/norm1_4/InstanceNormalization_output_0: 3d2ac9bc
/block.1/norm1_4/Reshape_1_output_0: 3d2ac9bc
onnx::Mul_1832_output: 3c29e34d
ONNXTRT_Broadcast_716_output: 3c29e34d
/block.1/norm1_4/Mul_output_0: 3d439bac
onnx::Add_1833_output: 3c27070c
ONNXTRT_Broadcast_718_output: 3c27070c
/block.1/norm1_4/Add_output_0: 3d61ca2f
/block.1_4/Sigmoid_output_0: 3c03478f
/block.1_4/Mul_output_0: 3cc0f259
/block.1/conv1_4/Conv_output_0: 3eab7934
up.3.block.1.temb_proj.weight_output: 3b6c8829
/block.1/temb_proj_4/Gemm_output: 3dfcdc2f
ONNXTRT_Broadcast_720_output: 3b13ae5f
/block.1/temb_proj_4/Gemm_output_0: 3dd5fd3a
/block.2_1/Sigmoid_output_0: 3c010834
/attn.0/norm_1/Mul_output_0: 3ca4c4b9
/block.1_5/Add_1_output_0: 3ec819e0
/Mul_2_output_0: 3c4028fa
/block.2_3/Mul_output_0: 3c901012
/block.0/temb_proj_6/Gemm_output: 3ee70e2c
/block.1_4/Unsqueeze_output_0: 3dd5fd3a
/attn.1/v_1/Conv_output_0: 3dc09ba1
ONNXTRT_Broadcast_1028_output: 3b9b55e6
ONNXTRT_Broadcast_1062_output: 3bd6d1bb
/block.1_4/Unsqueeze_1_output_0: 3dd5fd3a
/block.1_4/Add_output_0: 3eb37ed9
/block.1/norm2_4/Reshape_output_0: 3eb37ed9
/block.1/norm2_4/InstanceNormalization_output_0: 3d2bf8b3
/block.1/norm2_7/InstanceNormalization_output_0: 3d25be22
/block.1/norm2_4/Reshape_1_output_0: 3d2bf8b3
onnx::Mul_1834_output: 3c9fa8d8
ONNXTRT_Broadcast_746_output: 3c9fa8d8
/block.1/norm2_4/Mul_output_0: 3daec6e2
onnx::Add_1835_output: 3c536416
ONNXTRT_Broadcast_748_output: 3c536416
/block.1/norm2_4/Add_output_0: 3dcbdbc6
/block.1_4/Sigmoid_1_output_0: 3c01044c
/block.1_4/Mul_1_output_0: 3d231faf
/block.1/conv2_4/Conv_output_0: 3ef2b81b
/block.1/nin_shortcut/Conv_output_0: 3ea37a1b
/block.1_4/Add_1_output_0: 3f2affa2
/Concat_3_output_0: 3f2affa2
/block.2/norm1/Reshape_output_0: 3f2affa2
/block.2/norm1/InstanceNormalization_output_0: 3d360597
/block.0/norm2_7/Reshape_1_output_0: 3d2fbe54
/block.2/norm1/Reshape_1_output_0: 3d360597
onnx::Mul_1836_output: 3c300013
ONNXTRT_Broadcast_756_output: 3c300013
/block.2/norm1/Mul_output_0: 3d6c77a3
onnx::Add_1837_output: 3c14004b
ONNXTRT_Broadcast_758_output: 3c14004b
/block.2/norm1/Add_output_0: 3d46e168
/block.2/Sigmoid_output_0: 3c025439
/block.2/Mul_output_0: 3cb09323
/block.2/conv1/Conv_output_0: 3eb10ea2
up.3.block.2.temb_proj.weight_output: 3b9efbf7
/block.2/temb_proj/Gemm_output: 3dfe601b
ONNXTRT_Broadcast_760_output: 3b3de3f9
/block.2/temb_proj/Gemm_output_0: 3e0ac3b5
ONNXTRT_Broadcast_1214_output: 3bc99663
ONNXTRT_Broadcast_956_output: 3b8adbd9
/attn.0/norm_1/Reshape_output_0: 3f23044e
/block.0/norm1_5/Add_output_0: 3d674911
/block.0_6/Mul_output_0: 3cd4ee22
/block.2/Unsqueeze_output_0: 3e0ac3b5
/attn.0_1/Reshape_1_output_0: 3d68a716
/attn.0_1/Reshape_2_output_0: 3d8c6128
/attn.0_1/Reshape_output_0: 3d4f887e
/block.2/norm1_2/Add_output_0: 3d7636b1
ONNXTRT_Broadcast_1164_output: 3c375f04
ONNXTRT_Broadcast_1090_output: 3c893e8e
/block.2/Unsqueeze_1_output_0: 3e0ac3b5
/block.2/Add_output_0: 3eba9515
/block.2/norm2/Reshape_output_0: 3eba9515
/block.2/norm2/InstanceNormalization_output_0: 3d24aef9
/block.1/norm2_7/Reshape_1_output_0: 3d25be22
onnx::Mul_1879_output: 3ccf5034
/block.2/norm2/Reshape_1_output_0: 3d24aef9
onnx::Mul_1838_output: 3c8deb7d
ONNXTRT_Broadcast_786_output: 3c8deb7d
/block.2/norm2/Mul_output_0: 3d8e4477
onnx::Add_1839_output: 3c2cb258
ONNXTRT_Broadcast_788_output: 3c2cb258
/block.2/norm2/Add_output_0: 3d97c2bd
/block.2/Sigmoid_1_output_0: 3c0748e6
/block.2/Mul_1_output_0: 3ce8aa83
/block.2/conv2/Conv_output_0: 3e6c1616
/block.2/nin_shortcut/Conv_output_0: 3e7b49e2
/block.2/Add_1_output_0: 3f070101
