TRT-100100-EntropyCalibration2
latent: 3cfbb6df
up.3.block.2.conv2.bias_output: 3affdf28
up.3.block.2.nin_shortcut.bias: 3affdf28
up.3.block.2.conv1.bias_output: 3b3de3f9
up.3.block.2.temb_proj.bias: 3b3de3f9
up.3.block.1.conv2.bias_output: 3b029f16
up.3.block.1.nin_shortcut.bias: 3b029f16
up.3.block.1.conv1.bias_output: 3b13ae5f
up.3.block.1.temb_proj.bias: 3b13ae5f
up.3.block.0.conv2.bias_output: 3aa43a93
up.3.block.0.nin_shortcut.bias: 3aa43a93
up.3.block.0.conv1.bias_output: 3ab0d687
up.3.block.0.temb_proj.bias: 3ab0d687
up.2.block.2.conv2.bias_output: 3b633f03
up.2.block.2.nin_shortcut.bias: 3b633f03
up.2.block.2.conv1.bias_output: 3b5ab97f
up.2.block.2.temb_proj.bias: 3b5ab97f
up.2.block.1.conv2.bias_output: 3b054290
up.2.block.1.nin_shortcut.bias: 3b054290
up.2.block.1.conv1.bias_output: 3b58d5b4
up.2.block.1.temb_proj.bias: 3b58d5b4
up.2.block.0.conv2.bias_output: 3b14a478
up.2.block.0.nin_shortcut.bias: 3b14a478
up.2.block.0.conv1.bias_output: 3b1346a2
up.2.block.0.temb_proj.bias: 3b1346a2
up.1.block.2.conv2.bias_output: 3bb2fa3f
up.1.block.2.nin_shortcut.bias: 3bb2fa3f
up.1.block.2.conv1.bias_output: 3b7a7421
up.1.block.2.temb_proj.bias: 3b7a7421
up.1.block.1.conv2.bias_output: 3b5343da
up.1.block.1.nin_shortcut.bias: 3b5343da
up.1.block.1.conv1.bias_output: 3b6b2bf4
up.1.block.1.temb_proj.bias: 3b6b2bf4
up.1.block.0.conv2.bias_output: 3bb6a56f
up.1.block.0.nin_shortcut.bias: 3bb6a56f
up.1.block.0.conv1.bias_output: 3b7bdd87
up.1.block.0.temb_proj.bias: 3b7bdd87
up.0.block.2.conv2.bias_output: 3b876b74
up.0.block.2.nin_shortcut.bias: 3b876b74
up.0.block.2.conv1.bias_output: 3af79513
up.0.block.2.temb_proj.bias: 3af79513
up.0.block.1.conv2.bias_output: 3b97e6dc
up.0.block.1.nin_shortcut.bias: 3b97e6dc
up.0.block.1.conv1.bias_output: 3aeff97d
up.0.block.1.temb_proj.bias: 3aeff97d
up.0.block.0.conv2.bias_output: 3bbf68ef
up.0.block.0.nin_shortcut.bias: 3bbf68ef
up.0.block.0.conv1.bias_output: 3b0eb810
up.0.block.0.temb_proj.bias: 3b0eb810
mid.block_2.conv1.bias_output: 3b0c3014
mid.block_2.temb_proj.bias: 3b0c3014
mid.block_1.conv1.bias_output: 3ad8663b
mid.block_1.temb_proj.bias: 3ad8663b
down.3.block.1.conv1.bias_output: 3ab314d2
down.3.block.1.temb_proj.bias: 3ab314d2
down.3.block.0.conv1.bias_output: 3aa58dd5
down.3.block.0.temb_proj.bias: 3aa58dd5
down.2.block.1.conv1.bias_output: 3af79f61
down.2.block.1.temb_proj.bias: 3af79f61
down.2.block.0.conv1.bias_output: 3b0a9250
down.2.block.0.temb_proj.bias: 3b0a9250
down.1.block.1.conv1.bias_output: 3b5c3af6
down.1.block.1.temb_proj.bias: 3b5c3af6
down.1.block.0.conv2.bias_output: 3ba664ff
down.1.block.0.nin_shortcut.bias: 3ba664ff
down.1.block.0.conv1.bias_output: 3b815865
down.1.block.0.temb_proj.bias: 3b815865
down.0.block.1.conv1.bias_output: 3b7bbe93
down.0.block.1.temb_proj.bias: 3b7bbe93
down.0.block.0.conv1.bias_output: 3bbee7a3
down.0.block.0.temb_proj.bias: 3bbee7a3
/Cast_output_0: 412554ea
/attn.0/k_1/Conv_output_0: 3d4913ee
/attn.2/k/Conv_output_0: 3d3c3b7a
onnx::Add_1884_output: 3c47e068
/block.1_7/Sigmoid_1_output_0: 3c09a24f
/block.2/temb_proj_3/Gemm_output_0: 3e8526f7
ONNXTRT_Broadcast_1132_output: 3c584f4b
/Unsqueeze_output_0: 412554ea
/Constant_1_output_0_output: 3c010a14
/Mul_output_0: 40ca562c
/Sin_output_0: 3c01b333
/Cos_output_0: 3c01d360
/Concat_output_0: 3c02b537
temb.dense.0.weight_output: 3b8c4b1a
/dense.0/Gemm_output: 3d6c9e2b
temb.dense.0.bias_output: 3b0a72d1
ONNXTRT_Broadcast_output: 3b0a72d1
/dense.0/Gemm_output_0: 3d410435
/Sigmoid_output_0: 3c03b314
/Mul_1_output_0: 3becf493
temb.dense.1.weight_output: 3b29c707
/dense.1/Gemm_output: 3d57e62f
temb.dense.1.bias_output: 3acf3dfa
ONNXTRT_Broadcast_4_output: 3acf3dfa
/dense.1/Gemm_output_0: 3d2b6da8
/conv_in/Conv_output_0: 3d963910
/block.0/norm1/Reshape_output_0: 3d963910
/block.0/norm1/InstanceNormalization_output_0: 3d27f63d
/block.2/norm2_2/Mul_output_0: 3d84b308
/attn.0_1/Reshape_output_0: 3d504f41
/block.0/norm1/Reshape_1_output_0: 3d27f63d
onnx::Mul_1767_output: 3c989f5c
ONNXTRT_Broadcast_11_output: 3c989f5c
/block.0/norm1/Mul_output_0: 3d325665
onnx::Add_1768_output: 3b963415
ONNXTRT_Broadcast_13_output: 3b963415
/block.0/norm1/Add_output_0: 3d34adc1
/block.0/Sigmoid_output_0: 3c0860c7
/block.0/Mul_output_0: 3cbffe68
/block.0/conv1/Conv_output_0: 3f065336
/block.0/Sigmoid_1_output_0: 3c03c8f0
/block.0/Mul_1_output_0: 3c8f9265
down.0.block.0.temb_proj.weight_output: 3c3f7b44
/block.0/temb_proj/Gemm_output: 3f77cb35
ONNXTRT_Broadcast_15_output: 3bbee7a3
/block.0/temb_proj/Gemm_output_0: 3f8756cc
/attn.1_1/MatMul_output_0: 3fbb52c1
/block.0/norm1_7/Mul_output_0: 3d351a71
/block.0/norm1_5/InstanceNormalization_output_0: 3d691483
/block.0_6/Sigmoid_1_output_0: 3c00c0de
/block.2/norm2_3/Reshape_1_output_0: 3d3daa4b
/block.1/temb_proj_6/Gemm_output: 3ed6e476
/block.0/Unsqueeze_output_0: 3f8756cc
ONNXTRT_Broadcast_838_output: 3c479295
ONNXTRT_Broadcast_906_output: 3c8198d4
onnx::Mul_1883_output: 3cb709b7
/block.1_6/Unsqueeze_output_0: 3ee6fe30
/block.1_6/Sigmoid_output_0: 3c00f65e
/block.0/Unsqueeze_1_output_0: 3f8756cc
/block.0/Add_output_0: 3f9347c6
/block.0/norm2/Reshape_output_0: 3f9347c6
/block.0/norm2/InstanceNormalization_output_0: 3d4fcc57
ONNXTRT_Broadcast_1102_output: 3b8f3652
onnx::Mul_1847_output: 3ca1ae87
/block.0/norm2/Reshape_1_output_0: 3d4fcc57
onnx::Mul_1769_output: 3cae0ab5
ONNXTRT_Broadcast_41_output: 3cae0ab5
/block.0/norm2/Mul_output_0: 3d701f17
onnx::Add_1770_output: 3c0dc603
ONNXTRT_Broadcast_43_output: 3c0dc603
/block.0/norm2/Add_output_0: 3d479d80
/block.0/Sigmoid_2_output_0: 3c007e13
/block.0/Mul_2_output_0: 3c8e7be5
/block.0/conv2/Conv_output_0: 3d91c5da
/block.0/Add_1_output_0: 3dcbe692
/block.1/norm1/Reshape_output_0: 3dcbe692
/block.1/norm1/InstanceNormalization_output_0: 3d366b2c
/attn.1_1/Softmax_output: 3a708917
/attn.0_1/Mul_1_output_0: 3dc396c4
/block.1/norm1/Reshape_1_output_0: 3d366b2c
onnx::Mul_1771_output: 3cac897e
ONNXTRT_Broadcast_51_output: 3cac897e
/block.1/norm1/Mul_output_0: 3d5a1aac
onnx::Add_1772_output: 3bec6095
ONNXTRT_Broadcast_53_output: 3bec6095
/block.1/norm1/Add_output_0: 3d60cdc3
/block.1/Sigmoid_output_0: 3c00d8a1
/block.1/Mul_output_0: 3cc02d3a
/block.1/conv1/Conv_output_0: 3e9ec875
down.0.block.1.temb_proj.weight_output: 3c094cbd
/block.1/temb_proj/Gemm_output: 3f3e590d
ONNXTRT_Broadcast_55_output: 3b7bbe93
/block.1/temb_proj/Gemm_output_0: 3f417633
/block.0/temb_proj_6/Gemm_output_0: 3edc9884
/block.1_6/Mul_output_0: 3cd4cc16
/attn.1_1/Transpose_1_output_0: 3a708917
/block.2/norm1_3/Reshape_1_output_0: 3d4dca4e
onnx::Mul_1868_output: 3c893e8e
/block.0_6/Unsqueeze_output_0: 3edc9884
/block.1/Unsqueeze_output_0: 3f417633
onnx::Mul_1862_output: 3c9c9ebe
/block.1_7/Add_1_output_0: 4009a96f
/block.2_1/Unsqueeze_output_0: 3e97841a
/block.1/Unsqueeze_1_output_0: 3f417633
/block.1/Add_output_0: 3f545b19
/block.1/norm2/Reshape_output_0: 3f545b19
/block.1/norm2/InstanceNormalization_output_0: 3d41e6b1
/block.2/temb_proj_1/Gemm_output_0: 3e97841a
/block.1/norm2/Reshape_1_output_0: 3d41e6b1
onnx::Mul_1773_output: 3c9603f4
ONNXTRT_Broadcast_81_output: 3c9603f4
/block.1/norm2/Mul_output_0: 3d7e7008
onnx::Add_1774_output: 3c1e3524
ONNXTRT_Broadcast_83_output: 3c1e3524
/block.1/norm2/Add_output_0: 3d822a6c
/block.1/Sigmoid_1_output_0: 3c00888f
/block.1/Mul_1_output_0: 3cc233f5
/block.1/conv2/Conv_output_0: 3dd169ee
/block.1/Add_1_output_0: 3dbccee3
/block.2_2/Sigmoid_output_0: 3c010682
/block.2/norm2_3/Mul_output_0: 3db28bdc
/attn.2/Reshape_output_0: 3d5bba62
/norm_out/InstanceNormalization_output_0: 3d534da6
/block.2/norm2_3/Reshape_output_0: 3e965a5b
/block.1/norm1_6/Reshape_output_0: 3ecbb391
/attn.1/proj_out_1/Conv_output_0: 3ec7d946
/attn.1_1/Reshape_1_output_0: 3d6eb067
/block.1/norm2_7/Reshape_1_output_0: 3d2c5dc4
/block.0_6/Mul_1_output_0: 3cb24c2f
ONNXTRT_Broadcast_1242_output: 3cb709b7
ONNXTRT_Broadcast_992_output: 3b6b2bf4
/attn.2/Softmax_output: 39d1f5fe
/attn.2/Reshape_3_output_0: 3d92aa14
/upsample/conv_2/Conv_output_0: 409b1dbe
onnx::Add_1882_output: 3bc99663
up.1.block.1.temb_proj.weight_output: 3c06f043
ONNXTRT_Broadcast_1134_output: 3c7e5164
/attn.0/norm_1/Reshape_output_0: 3f0fba56
/block.0/conv2_5/Conv_output_0: 3edf8029
/attn.1/norm_1/Add_output_0: 3cab19f1
ONNXTRT_Broadcast_1030_output: 3b662a76
/block.2/norm2_1/Add_output_0: 3dd7a6a1
onnx::Add_1886_output: 3cb33291
/block.2_3/Add_output_0: 3e965a5b
/block.0_7/Mul_output_0: 3cc0db96
onnx::Mul_1849_output: 3c5eda69
/attn.1_1/MatMul_1_output_0: 3d8df837
/attn.0_1/Reshape_1_output_0: 3d4913ee
/block.2/norm1_3/Add_output_0: 3d16438e
/block.2/norm1_3/InstanceNormalization_output_0: 3d4dca4e
/block.2_3/Sigmoid_1_output_0: 3c011189
ONNXTRT_Broadcast_1212_output: 3c408182
ONNXTRT_Broadcast_1092_output: 3bfc744c
/block.2_3/Mul_output_0: 3c72329c
ONNXTRT_Broadcast_1062_output: 3bd6d1bb
/attn.2/norm/Reshape_1_output_0: 3d4e2201
onnx::Mul_1870_output: 3ba4966c
/block.1/norm2_5/InstanceNormalization_output_0: 3d625590
/block.1/norm1_6/InstanceNormalization_output_0: 3d4beb8a
/block.1/norm2_5/Reshape_output_0: 3f1078ce
/block.1/norm2_5/Reshape_1_output_0: 3d625590
/block.1/norm2_7/Add_output_0: 3da45a13
/block.1_5/Add_output_0: 3f1078ce
/downsample/Pad_output_0: 3dbccee3
/downsample/conv/Conv_output_0: 3e8c24d9
/block.0/norm1_1/Reshape_output_0: 3e8c24d9
/block.0/norm1_1/InstanceNormalization_output_0: 3d40d537
/block.1/conv2_6/Conv_output_0: 3e40fb87
/block.0/norm1_1/Reshape_1_output_0: 3d40d537
onnx::Mul_1780_output: 3c7af8b4
ONNXTRT_Broadcast_146_output: 3c7af8b4
/block.0/norm1_1/Mul_output_0: 3d47d0ce
onnx::Add_1781_output: 3bb9217b
ONNXTRT_Broadcast_148_output: 3bb9217b
/block.0/norm1_1/Add_output_0: 3d46dde8
/block.0_1/Sigmoid_output_0: 3c049a19
/block.0_1/Mul_output_0: 3ce6fe91
/block.0/conv1_1/Conv_output_0: 3f32932f
down.1.block.0.temb_proj.weight_output: 3c6699b7
/block.0/temb_proj_1/Gemm_output: 3f8b21e8
ONNXTRT_Broadcast_150_output: 3b815865
/block.0/temb_proj_1/Gemm_output_0: 3fa5f65c
onnx::Mul_1875_output: 3cfa0104
/Concat_7_output_0: 3edc94dd
ONNXTRT_Broadcast_988_output: 3c5c58e2
/block.2/temb_proj_1/Gemm_output: 3e9e41b9
/block.0/nin_shortcut_3/Conv_output_0: 3ec326b3
/block.0_1/Unsqueeze_output_0: 3fa5f65c
/block.2/temb_proj_2/Gemm_output: 3f12efcd
/block.2/norm2_1/Mul_output_0: 3db6fafe
/attn.1_1/Transpose_output_0: 3d7baa6e
/block.0_1/Unsqueeze_1_output_0: 3fa5f65c
/block.0_1/Add_output_0: 3faa60de
/block.0/norm2_1/Reshape_output_0: 3faa60de
/block.0/norm2_1/InstanceNormalization_output_0: 3d55f00d
/Concat_9_output_0: 3f07bbf3
ONNXTRT_Broadcast_946_output: 3c9b19f6
/block.0/norm2_1/Reshape_1_output_0: 3d55f00d
onnx::Mul_1782_output: 3c5cfaba
ONNXTRT_Broadcast_176_output: 3c5cfaba
/block.0/norm2_1/Mul_output_0: 3d616c43
onnx::Add_1783_output: 3b8cf18b
ONNXTRT_Broadcast_178_output: 3b8cf18b
/block.0/norm2_1/Add_output_0: 3d4a9f3a
/block.0_1/Sigmoid_1_output_0: 3bdd347d
/block.0_1/Mul_1_output_0: 3c148ca1
/block.0/conv2_1/Conv_output_0: 3da8e5df
/block.0/nin_shortcut/Conv_output_0: 3db84c5d
/block.0_1/Add_1_output_0: 3df89f00
/attn.0/norm/Reshape_output_0: 3df89f00
/attn.0/norm/InstanceNormalization_output_0: 3d39c22a
/block.0/norm1_6/InstanceNormalization_output_0: 3d775046
ONNXTRT_Broadcast_920_output: 3b7bdd87
/attn.0/norm/Reshape_1_output_0: 3d39c22a
onnx::Mul_1784_output: 3b8b92a0
ONNXTRT_Broadcast_186_output: 3b8b92a0
/attn.0/norm/Mul_output_0: 3c8a36b3
onnx::Add_1785_output: 3bb448ab
ONNXTRT_Broadcast_188_output: 3bb448ab
/attn.0/norm/Add_output_0: 3c8e5060
/attn.0/q/Conv_output_0: 3d43ed0c
/attn.0/k/Conv_output_0: 3d3a6781
/attn.0/v/Conv_output_0: 3d21e85d
up.1.block.0.temb_proj.weight_output: 3bf8619a
ONNXTRT_Broadcast_956_output: 3b8adbd9
/attn.2/Reshape_2_output_0: 3dc7d513
/attn.0_1/Constant_4_output_0_output: 3a010a14
/block.0/temb_proj_5/Gemm_output: 3e295b21
/block.2/norm1_2/Reshape_1_output_0: 3d76b64c
/attn.2/Constant_4_output_0_output: 3a010a14
onnx::Add_1861_output: 3c3e32ea
/attn.2/proj_out/Conv_output_0: 3ec85966
/attn.1/norm_1/Reshape_1_output_0: 3d33a6a5
/upsample_2/Resize_output_0: 3f693fc8
/block.0/norm1_7/InstanceNormalization_output_0: 3d98f2dc
/block.1/norm2_6/Reshape_1_output_0: 3d1ba369
/block.0_7/Sigmoid_output_0: 3bfeadd4
/block.0/norm2_7/InstanceNormalization_output_0: 3d23e109
/block.2/nin_shortcut_2/Conv_output_0: 3f7ddd9c
/block.2_2/Mul_output_0: 3cd272c9
onnx::Mul_1851_output: 3c8198d4
/block.1/norm1_5/Add_output_0: 3d9302c1
/block.1_5/Unsqueeze_output_0: 3e76b656
ONNXTRT_Broadcast_1216_output: 3af79513
/block.1/conv1_5/Conv_output_0: 3f0ccc7c
onnx::Add_1846_output: 3c479295
/attn.0/Reshape_output_0: 3d43ed0c
/attn.0/Transpose_output_0: 3d43ed0c
/attn.0/Reshape_1_output_0: 3d3a6781
/attn.0/MatMul_output_0: 3f8df6ac
/attn.0/Constant_4_output_0_output: 3a010a14
ONNXTRT_Broadcast_201_output: 3a010a14
/attn.0/Mul_1_output_0: 3d8df6ac
/attn.0/Softmax_output: 3a70afd4
/attn.0/Softmax_output_0: 3a70afd4
/block.2_1/Mul_1_output_0: 3c31a21f
/block.1/norm2_5/Add_output_0: 3dc74a1b
/attn.0/Reshape_2_output_0: 3d21e85d
/attn.0/Transpose_1_output_0: 3a70afd4
/attn.0/MatMul_1_output_0: 3cc42930
/block.1_5/Sigmoid_1_output_0: 3c0150ff
/block.1/temb_proj_5/Gemm_output_0: 3e76b656
up.2.block.1.temb_proj.weight_output: 3bda0ce4
/attn.1/norm_1/Mul_output_0: 3ca02b64
/block.1_5/Sigmoid_output_0: 3c01ff4a
/attn.0/Reshape_3_output_0: 3cc42930
/attn.0/proj_out/Conv_output_0: 3dbb8958
/attn.0/Add_output_0: 3def6ae9
/block.1/norm1_1/Reshape_output_0: 3def6ae9
/block.1/norm1_1/InstanceNormalization_output_0: 3d49a97a
ONNXTRT_Broadcast_1244_output: 3c47e068
/block.2/norm1_1/Mul_output_0: 3d894379
/block.1/norm1_1/Reshape_1_output_0: 3d49a97a
onnx::Mul_1786_output: 3c79689b
ONNXTRT_Broadcast_218_output: 3c79689b
/block.1/norm1_1/Mul_output_0: 3d7c9f4d
onnx::Add_1787_output: 3bc111af
ONNXTRT_Broadcast_220_output: 3bc111af
/block.1/norm1_1/Add_output_0: 3d830e5c
/block.1_1/Sigmoid_output_0: 3c00e892
/block.1_1/Mul_output_0: 3cbfa02a
/block.1/conv1_1/Conv_output_0: 3ed0e164
down.1.block.1.temb_proj.weight_output: 3be84944
/block.1/temb_proj_1/Gemm_output: 3f730d5b
ONNXTRT_Broadcast_222_output: 3b5c3af6
/block.1/temb_proj_1/Gemm_output_0: 3fab3142
/Sigmoid_1_output_0: 3bde13d2
onnx::Add_1859_output: 3b669c26
ONNXTRT_Broadcast_1254_output: 3cb33291
/attn.0_1/Add_output_0: 3ef1753d
/block.2/norm1_2/Add_output_0: 3d6a5a31
ONNXTRT_Broadcast_948_output: 3c25d518
/block.1_1/Unsqueeze_output_0: 3fab3142
/block.0/norm1_6/Reshape_output_0: 3edc94dd
/block.2/norm2_1/InstanceNormalization_output_0: 3d8693e9
/block.0_7/Unsqueeze_output_0: 3ea23c03
/norm_out/Add_output_0: 3dc1231d
/upsample/conv/Conv_output_0: 3f97f769
/block.1/conv2_7/Conv_output_0: 3efe846d
/block.1_1/Unsqueeze_1_output_0: 3fab3142
/block.1_1/Add_output_0: 3fbcf0e5
/block.1/norm2_1/Reshape_output_0: 3fbcf0e5
/block.1/norm2_1/InstanceNormalization_output_0: 3d30b855
ONNXTRT_Broadcast_836_output: 3c4dd28d
/block.1/norm1_5/Reshape_1_output_0: 3d55afe2
/block.1/norm2_1/Reshape_1_output_0: 3d30b855
onnx::Mul_1788_output: 3c6cbc2f
ONNXTRT_Broadcast_248_output: 3c6cbc2f
/block.1/norm2_1/Mul_output_0: 3d57205b
onnx::Add_1789_output: 3ba3c275
ONNXTRT_Broadcast_250_output: 3ba3c275
/block.1/norm2_1/Add_output_0: 3d5c3498
/block.1_1/Sigmoid_1_output_0: 3bf1da5a
/block.1_1/Mul_1_output_0: 3c749a09
/block.1/conv2_1/Conv_output_0: 3d2f8eca
/block.1_1/Add_1_output_0: 3dd12b99
/attn.1/norm/Reshape_output_0: 3dd12b99
/attn.1/norm/InstanceNormalization_output_0: 3d31e5b2
onnx::Mul_1854_output: 3c51cef7
/block.1/norm1_5/InstanceNormalization_output_0: 3d55afe2
/attn.1/norm/Reshape_1_output_0: 3d31e5b2
onnx::Mul_1790_output: 3b73f83d
ONNXTRT_Broadcast_258_output: 3b73f83d
/attn.1/norm/Mul_output_0: 3c89513e
onnx::Add_1791_output: 3ba90873
ONNXTRT_Broadcast_260_output: 3ba90873
/attn.1/norm/Add_output_0: 3c7a5f27
/attn.1/q/Conv_output_0: 3d295b31
/attn.1/k/Conv_output_0: 3d46d937
/attn.1/v/Conv_output_0: 3d0a76a1
/block.0_6/Mul_output_0: 3c9a0ffa
/block.0/norm1_5/Mul_output_0: 3d590363
/block.2/norm2_1/Reshape_output_0: 3f9c3fbe
/block.1_7/Mul_1_output_0: 3d44f35c
/block.2/norm2_2/InstanceNormalization_output_0: 3d335e78
/Concat_6_output_0: 3e9d9d57
/block.1/norm1_5/Reshape_output_0: 3edd9171
/block.1/temb_proj_6/Gemm_output_0: 3ee6fe30
/block.0/nin_shortcut_2/Conv_output_0: 3e86006b
/block.0_5/Add_1_output_0: 3f15ed47
onnx::Mul_1881_output: 3c408182
/block.0_5/Sigmoid_1_output_0: 3c034be3
/block.0_5/Unsqueeze_1_output_0: 3e3dab1e
ONNXTRT_Broadcast_828_output: 3c6fcbd8
ONNXTRT_Broadcast_1202_output: 3ccf5034
/attn.2/norm/Reshape_output_0: 3f78aea2
/block.0_5/Unsqueeze_output_0: 3e3dab1e
/block.0/norm2_5/Mul_output_0: 3da9e6b7
/attn.2/norm/Mul_output_0: 3ce2ee2c
/attn.0_1/Transpose_1_output_0: 3a1e48a7
onnx::Mul_1843_output: 3cacafa2
/norm_out/Reshape_1_output_0: 3d534da6
/attn.1/Reshape_output_0: 3d295b31
/attn.1/Transpose_output_0: 3d295b31
/attn.1/Reshape_1_output_0: 3d46d937
/attn.1/MatMul_output_0: 3fd3a1be
/attn.1/Constant_4_output_0_output: 3a010a14
ONNXTRT_Broadcast_273_output: 3a010a14
/attn.1/Mul_1_output_0: 3dd3a1be
/attn.1/Softmax_output: 3a83164d
/attn.1/Softmax_output_0: 3a83164d
/attn.2/norm/InstanceNormalization_output_0: 3d4e2201
/block.0/norm2_6/Reshape_output_0: 3f277fa2
/attn.1/Reshape_2_output_0: 3d0a76a1
/attn.1/Transpose_1_output_0: 3a83164d
/attn.1/MatMul_1_output_0: 3ccb457a
/block.1/norm2_7/Mul_output_0: 3da71ad0
/block.1_6/Unsqueeze_1_output_0: 3ee6fe30
/block.2_2/Unsqueeze_output_0: 3f186049
/block.2/norm1_3/Mul_output_0: 3d140600
/attn.1/Reshape_3_output_0: 3ccb457a
/attn.1/proj_out/Conv_output_0: 3da439bc
/attn.1/Add_output_0: 3da55a2a
ONNXTRT_Broadcast_1020_output: 3c2b0333
onnx::Mul_1885_output: 3d04ebcf
/attn.2/Reshape_1_output_0: 3d3c3b7a
/attn.2/MatMul_1_output_0: 3d92aa14
/attn.0_1/MatMul_output_0: 3fc396c4
/block.2_2/Add_output_0: 3f365ba9
/block.0_5/Sigmoid_output_0: 3c00de8b
/block.2/norm1_2/Mul_output_0: 3d6d79b1
/attn.2/Mul_1_output_0: 3d7bb8eb
/attn.1/v_1/Conv_output_0: 3dbd9c06
ONNXTRT_Broadcast_880_output: 3b5ab97f
/block.2/norm2_3/InstanceNormalization_output_0: 3d3daa4b
/attn.2/Add_output_0: 3f693fc8
onnx::Add_1865_output: 3b662a76
/block.0/norm1_7/Reshape_output_0: 3fcd65a7
/norm_out/Reshape_output_0: 40b92b6a
noise_pred: 3d5f0216
/block.0/conv2_6/Conv_output_0: 3ea7a118
/block.0/temb_proj_7/Gemm_output: 3ea0750c
/block.1/norm2_5/Mul_output_0: 3dc0f9e0
/block.1_5/Unsqueeze_1_output_0: 3e76b656
/attn.0/norm_1/Mul_output_0: 3ca03304
/attn.0/proj_out_1/Conv_output_0: 3e8cbc65
onnx::Add_1869_output: 3bfc744c
onnx::Add_1857_output: 3c25d518
/block.0/norm1_6/Mul_output_0: 3d8dcc18
ONNXTRT_Broadcast_1204_output: 3c3f43a0
onnx::Mul_1856_output: 3c9b19f6
onnx::Add_1874_output: 3c7e5164
/attn.1_1/Reshape_2_output_0: 3dbd9c06
ONNXTRT_Broadcast_798_output: 3c40b959
/block.1_6/Add_1_output_0: 3f203ca4
up.1.block.2.temb_proj.weight_output: 3bfd74d0
/block.1_6/Mul_1_output_0: 3c99ef8a
/attn.1_1/Add_output_0: 3f26494b
ONNXTRT_Broadcast_800_output: 3b1346a2
/block.2_3/Add_1_output_0: 40b92b6a
up.2.block.0.temb_proj.weight_output: 3ba85cc2
/block.0_5/Mul_output_0: 3d037e5f
/block.0/norm1_5/Add_output_0: 3d50b7bd
ONNXTRT_Broadcast_796_output: 3c2a7bec
/attn.1_1/Softmax_output_0: 3a708917
onnx::Add_1842_output: 3c40b959
/block.0/norm1_5/Reshape_1_output_0: 3d691483
/block.0/temb_proj_5/Gemm_output_0: 3e3dab1e
/downsample_1/Pad_output_0: 3da55a2a
/downsample/conv_1/Conv_output_0: 3e07bd39
/block.0/norm1_2/Reshape_output_0: 3e07bd39
/block.0/norm1_2/InstanceNormalization_output_0: 3d403328
ONNXTRT_Broadcast_1043_output: 3a010a14
/Concat_12_output_0: 3f91b596
/block.0/norm1_2/Reshape_1_output_0: 3d403328
onnx::Mul_1797_output: 3c330a89
ONNXTRT_Broadcast_347_output: 3c330a89
/block.0/norm1_2/Mul_output_0: 3d8a0dc6
onnx::Add_1798_output: 3bbf682a
ONNXTRT_Broadcast_349_output: 3bbf682a
/block.0/norm1_2/Add_output_0: 3d6e4339
/block.0_2/Sigmoid_output_0: 3c0d2501
/block.0_2/Mul_output_0: 3ce61289
/block.0/conv1_2/Conv_output_0: 3f1efdd0
down.2.block.0.temb_proj.weight_output: 3bb2cf25
/block.0/temb_proj_2/Gemm_output: 3e6ef0fb
ONNXTRT_Broadcast_351_output: 3b0a9250
/block.0/temb_proj_2/Gemm_output_0: 3e8d9537
ONNXTRT_Broadcast_1100_output: 3ba4966c
onnx::Mul_1858_output: 3b8adbd9
/block.1_6/Sigmoid_1_output_0: 3c00f3fd
/block.0/norm2_6/Reshape_1_output_0: 3d2d20b2
ONNXTRT_Broadcast_1018_output: 3c9c9ebe
/block.0_2/Unsqueeze_output_0: 3e8d9537
/upsample/conv_1/Conv_output_0: 3f41537a
/block.1/norm1_6/Mul_output_0: 3d7c62d4
up.2.block.2.temb_proj.weight_output: 3be40232
/attn.1/norm_1/InstanceNormalization_output_0: 3d33a6a5
/block.2/norm1_1/InstanceNormalization_output_0: 3d681080
/block.0_2/Unsqueeze_1_output_0: 3e8d9537
/block.0_2/Add_output_0: 3f56e9da
/block.0/norm2_2/Reshape_output_0: 3f56e9da
/block.0/norm2_2/InstanceNormalization_output_0: 3d57b516
/block.0/norm2_2/Reshape_1_output_0: 3d57b516
onnx::Mul_1799_output: 3c453e81
ONNXTRT_Broadcast_377_output: 3c453e81
/block.0/norm2_2/Mul_output_0: 3d89e220
onnx::Add_1800_output: 3bc83456
ONNXTRT_Broadcast_379_output: 3bc83456
/block.0/norm2_2/Add_output_0: 3d774712
/block.0_2/Sigmoid_1_output_0: 3c01d720
/block.0_2/Mul_1_output_0: 3c480a47
/block.0/conv2_2/Conv_output_0: 3dc7f9ea
/block.0_2/Add_1_output_0: 3e25f6b8
/block.1/norm1_2/Reshape_output_0: 3e25f6b8
/block.1/norm1_2/InstanceNormalization_output_0: 3d543911
/attn.0_1/Softmax_output_0: 3a1e48a7
/block.0/norm1_5/Reshape_output_0: 3f55c9d9
/block.1/norm1_2/Reshape_1_output_0: 3d543911
onnx::Mul_1801_output: 3c37c33f
ONNXTRT_Broadcast_387_output: 3c37c33f
/block.1/norm1_2/Mul_output_0: 3d31a7bb
onnx::Add_1802_output: 3bc5e0ca
ONNXTRT_Broadcast_389_output: 3bc5e0ca
/block.1/norm1_2/Add_output_0: 3d58f259
/block.1_2/Sigmoid_output_0: 3c01c660
/block.1_2/Mul_output_0: 3ca3bb23
/block.1/conv1_2/Conv_output_0: 3ed10e84
down.2.block.1.temb_proj.weight_output: 3bd18b18
/block.1/temb_proj_2/Gemm_output: 3e71186a
ONNXTRT_Broadcast_391_output: 3af79f61
/block.1/temb_proj_2/Gemm_output_0: 3e6a101e
ONNXTRT_Broadcast_1162_output: 3cfa0104
/attn.2/Transpose_output_0: 3d5bba62
ONNXTRT_Broadcast_1136_output: 3b0eb810
/block.0/temb_proj_6/Gemm_output: 3ee6376a
onnx::Mul_1860_output: 3c5c58e2
/block.1_2/Unsqueeze_output_0: 3e6a101e
ONNXTRT_Broadcast_971_output: 3a010a14
/block.0/norm1_7/Reshape_1_output_0: 3d98f2dc
/block.0/conv1_5/Conv_output_0: 3f06af30
onnx::Mul_1866_output: 3c426c31
ONNXTRT_Broadcast_1115_output: 3a010a14
/block.1_2/Unsqueeze_1_output_0: 3e6a101e
/block.1_2/Add_output_0: 3f091b78
/block.1/norm2_2/Reshape_output_0: 3f091b78
/block.1/norm2_2/InstanceNormalization_output_0: 3d561639
/attn.0_1/Reshape_3_output_0: 3d39b0be
/block.0/norm1_7/Add_output_0: 3d4e823d
/block.1/norm2_2/Reshape_1_output_0: 3d561639
onnx::Mul_1803_output: 3c67ade7
ONNXTRT_Broadcast_417_output: 3c67ade7
/block.1/norm2_2/Mul_output_0: 3d630bc4
onnx::Add_1804_output: 3b8a4834
ONNXTRT_Broadcast_419_output: 3b8a4834
/block.1/norm2_2/Add_output_0: 3d553cb9
/block.1_2/Sigmoid_1_output_0: 3bf99838
/block.1_2/Mul_1_output_0: 3c808c58
/block.1/conv2_2/Conv_output_0: 3da0c50e
/block.1_2/Add_1_output_0: 3e26831d
onnx::Add_1848_output: 3c477af5
/block.1/norm2_6/Mul_output_0: 3d95a530
/block.1/norm2_6/Reshape_output_0: 3f819146
/block.2_3/Unsqueeze_1_output_0: 3e8526f7
onnx::Add_1876_output: 3c375f04
/block.2/conv2_1/Conv_output_0: 3e1b5223
/block.2_1/Unsqueeze_1_output_0: 3e97841a
onnx::Add_1855_output: 3c8cc653
/block.2_2/Sigmoid_1_output_0: 3c00ee5f
/attn.1/k_1/Conv_output_0: 3d6eb067
/block.1_5/Mul_1_output_0: 3cb20557
/block.1/temb_proj_5/Gemm_output: 3e884b0c
ONNXTRT_Broadcast_1028_output: 3b9b55e6
/block.1_5/Mul_output_0: 3cea9c24
/attn.0/q_1/Conv_output_0: 3d504f41
/block.2/norm1_2/InstanceNormalization_output_0: 3d76b64c
/attn.2/norm/Add_output_0: 3ce5723c
up.0.block.0.temb_proj.weight_output: 3bc50fb8
/attn.1_1/Reshape_3_output_0: 3d8df837
/block.2_3/Unsqueeze_output_0: 3e8526f7
/block.2/conv2_3/Conv_output_0: 3f971922
onnx::Add_1850_output: 3c523152
onnx::Mul_1873_output: 3c584f4b
ONNXTRT_Broadcast_1090_output: 3c893e8e
/block.0/temb_proj_7/Gemm_output_0: 3ea23c03
onnx::Add_1852_output: 3c0a9422
/block.0_7/Add_output_0: 3ec9dec8
/block.1/norm1_6/Reshape_1_output_0: 3d4beb8a
/attn.2/Softmax_output_0: 39d1f5fe
/block.0/norm2_5/Reshape_output_0: 3f248310
/block.2/norm2_2/Reshape_1_output_0: 3d335e78
/attn.0/norm_1/Add_output_0: 3c9a4cbd
/block.0/norm2_7/Reshape_1_output_0: 3d23e109
/block.1/norm2_6/Add_output_0: 3d9657fe
/attn.1_1/Mul_1_output_0: 3dbb52c1
/block.1_5/Add_1_output_0: 3ea091fb
/block.2/norm1_3/Reshape_output_0: 3f91b596
ONNXTRT_Broadcast_958_output: 3b669c26
/block.1/nin_shortcut_2/Conv_output_0: 3f150449
/Concat_8_output_0: 3ecbb391
/norm_out/Mul_output_0: 3da5323f
/block.0/norm2_6/Add_output_0: 3da3943b
ONNXTRT_Broadcast_1164_output: 3c375f04
/block.1/nin_shortcut_3/Conv_output_0: 3ff85b41
/block.0_7/Unsqueeze_1_output_0: 3ea23c03
/block.2_2/Add_1_output_0: 3f78aea2
/upsample/Resize_output_0: 3ed3f5d5
/block.2/norm1_1/Reshape_1_output_0: 3d681080
/downsample_2/Pad_output_0: 3e26831d
/downsample/conv_2/Conv_output_0: 3ee96c1f
/block.0/norm1_3/Reshape_output_0: 3ee96c1f
/block.0/norm1_3/InstanceNormalization_output_0: 3d290113
/block.1/norm1_5/Mul_output_0: 3d8eef09
onnx::Mul_1845_output: 3c4dd28d
/block.0/norm1_3/Reshape_1_output_0: 3d290113
onnx::Mul_1810_output: 3c180c11
ONNXTRT_Broadcast_484_output: 3c180c11
/block.0/norm1_3/Mul_output_0: 3d20609f
onnx::Add_1811_output: 3b9d7a34
ONNXTRT_Broadcast_486_output: 3b9d7a34
/block.0/norm1_3/Add_output_0: 3d30ce7a
/block.0_3/Sigmoid_output_0: 3c060dfb
/block.0_3/Mul_output_0: 3cb0c302
/block.0/conv1_3/Conv_output_0: 3e6b5cfc
down.3.block.0.temb_proj.weight_output: 3b7606f6
/block.0/temb_proj_3/Gemm_output: 3deee62b
ONNXTRT_Broadcast_488_output: 3aa58dd5
/block.0/temb_proj_3/Gemm_output_0: 3deb9568
/block.2/norm2_2/Add_output_0: 3d81e099
/block.0/norm2_6/Mul_output_0: 3d984461
ONNXTRT_Broadcast_916_output: 3c51cef7
onnx::Add_1880_output: 3c3f43a0
onnx::Mul_1879_output: 3ccf5034
/block.0_3/Unsqueeze_output_0: 3deb9568
/upsample_1/Resize_output_0: 3e7fe087
up.0.block.2.temb_proj.weight_output: 3ba266cc
/block.2_1/Mul_output_0: 3d026608
/block.2/nin_shortcut_3/Conv_output_0: 40aac619
/block.0_3/Unsqueeze_1_output_0: 3deb9568
/block.0_3/Add_output_0: 3e615b91
/block.0/norm2_3/Reshape_output_0: 3e615b91
/block.0/norm2_3/InstanceNormalization_output_0: 3d23048f
/block.2/conv1_1/Conv_output_0: 3f7b2648
/block.2/norm1_1/Reshape_output_0: 3e9d9d57
/block.0/norm2_3/Reshape_1_output_0: 3d23048f
onnx::Mul_1812_output: 3c675914
ONNXTRT_Broadcast_514_output: 3c675914
/block.0/norm2_3/Mul_output_0: 3d85de2c
onnx::Add_1813_output: 3c05cfbf
ONNXTRT_Broadcast_516_output: 3c05cfbf
/block.0/norm2_3/Add_output_0: 3d909285
/block.0_3/Sigmoid_1_output_0: 3c003a8f
/block.0_3/Mul_1_output_0: 3cd1c2ad
/block.0/conv2_3/Conv_output_0: 3e3281d5
/block.0_3/Add_1_output_0: 3ef42e3d
/block.1/norm1_3/Reshape_output_0: 3ef42e3d
/block.1/norm1_3/InstanceNormalization_output_0: 3d3826e9
ONNXTRT_Broadcast_826_output: 3cacafa2
/block.1/norm1_3/Reshape_1_output_0: 3d3826e9
onnx::Mul_1814_output: 3c219013
ONNXTRT_Broadcast_524_output: 3c219013
/block.1/norm1_3/Mul_output_0: 3d1cee15
onnx::Add_1815_output: 3b9ec175
ONNXTRT_Broadcast_526_output: 3b9ec175
/block.1/norm1_3/Add_output_0: 3d224207
/block.1_3/Sigmoid_output_0: 3c06ee48
/block.1_3/Mul_output_0: 3cc07e23
/block.1/conv1_3/Conv_output_0: 3e75deb8
down.3.block.1.temb_proj.weight_output: 3b70413f
/block.1/temb_proj_3/Gemm_output: 3def258e
ONNXTRT_Broadcast_528_output: 3ab314d2
/block.1/temb_proj_3/Gemm_output_0: 3df144dd
/block.2/temb_proj_2/Gemm_output_0: 3f186049
/attn.0/norm_1/Reshape_1_output_0: 3d36f092
/block.0/norm2_5/Reshape_1_output_0: 3d4b1a04
/block.2/conv1_3/Conv_output_0: 3e46040e
onnx::Add_1867_output: 3bd6d1bb
/block.1_3/Unsqueeze_output_0: 3df144dd
/block.2_1/Add_1_output_0: 3e7fe087
/block.2/norm2_1/Reshape_1_output_0: 3d8693e9
/block.1/conv1_6/Conv_output_0: 3ebaaf23
/block.2/conv1_2/Conv_output_0: 3f0e0744
/block.1/norm1_6/Add_output_0: 3d734537
/block.2/norm2_3/Add_output_0: 3d950827
/block.1_3/Unsqueeze_1_output_0: 3df144dd
/block.1_3/Add_output_0: 3e3ff1bd
/block.1/norm2_3/Reshape_output_0: 3e3ff1bd
/block.1/norm2_3/InstanceNormalization_output_0: 3d075879
/block.0/norm2_7/Add_output_0: 3da8fec3
/block.0_7/Sigmoid_1_output_0: 3c00f01f
/block.1/norm2_3/Reshape_1_output_0: 3d075879
onnx::Mul_1816_output: 3c7ea67c
ONNXTRT_Broadcast_554_output: 3c7ea67c
/block.1/norm2_3/Mul_output_0: 3d8bcf92
onnx::Add_1817_output: 3c14b43e
ONNXTRT_Broadcast_556_output: 3c14b43e
/block.1/norm2_3/Add_output_0: 3d9b9675
/block.1_3/Sigmoid_1_output_0: 3c010ccf
/block.1_3/Mul_1_output_0: 3ce8401a
/block.1/conv2_3/Conv_output_0: 3e201677
/block.1_3/Add_1_output_0: 3ede7a3f
/block_1/norm1/Reshape_output_0: 3ede7a3f
/block_1/norm1/InstanceNormalization_output_0: 3d1acaa1
/block.0_7/Mul_1_output_0: 3d0fc8bf
/block.0/conv2_7/Conv_output_0: 3eec9e7c
/block_1/norm1/Reshape_1_output_0: 3d1acaa1
onnx::Mul_1818_output: 3c31fc85
ONNXTRT_Broadcast_564_output: 3c31fc85
/block_1/norm1/Mul_output_0: 3d2fdf77
onnx::Add_1819_output: 3bb6bfa9
ONNXTRT_Broadcast_566_output: 3bb6bfa9
/block_1/norm1/Add_output_0: 3d3a0df5
/block_1/Sigmoid_output_0: 3c000e5c
/block_1/Mul_output_0: 3ca3aeb2
/block_1/conv1/Conv_output_0: 3e54da3b
mid.block_1.temb_proj.weight_output: 3b7fa774
/block_1/temb_proj/Gemm_output: 3df5648f
ONNXTRT_Broadcast_568_output: 3ad8663b
/block_1/temb_proj/Gemm_output_0: 3def2c5d
ONNXTRT_Broadcast_878_output: 3c523152
ONNXTRT_Broadcast_1214_output: 3bc99663
/block.0/norm2_6/InstanceNormalization_output_0: 3d2d20b2
/block.2/conv2_2/Conv_output_0: 3e93747d
/attn.0/v_1/Conv_output_0: 3d846f49
/block_1/Unsqueeze_output_0: 3def2c5d
/block.2/norm1_2/Reshape_output_0: 3f07bbf3
/attn.2/Transpose_1_output_0: 39d1f5fe
/attn.0_1/Softmax_output: 3a1e48a7
/block.2_2/Unsqueeze_1_output_0: 3f186049
/attn.2/v/Conv_output_0: 3dc7d513
ONNXTRT_Broadcast_1060_output: 3c426c31
/block_1/Unsqueeze_1_output_0: 3def2c5d
/block_1/Add_output_0: 3e7c7687
/block_1/norm2/Reshape_output_0: 3e7c7687
/block_1/norm2/InstanceNormalization_output_0: 3d03a250
/block.0/nin_shortcut_4/Conv_output_0: 4020aef0
/block.0_7/Add_1_output_0: 4029d00c
/block_1/norm2/Reshape_1_output_0: 3d03a250
onnx::Mul_1820_output: 3c81e81a
ONNXTRT_Broadcast_594_output: 3c81e81a
/block_1/norm2/Mul_output_0: 3d5e27fe
onnx::Add_1821_output: 3c213570
ONNXTRT_Broadcast_596_output: 3c213570
/block_1/norm2/Add_output_0: 3d882ea1
/block_1/Sigmoid_1_output_0: 3c05992c
/block_1/Mul_1_output_0: 3cd26203
/block_1/conv2/Conv_output_0: 3e26688b
/block_1/Add_1_output_0: 3f0d0b42
/attn_1/norm/Reshape_output_0: 3f0d0b42
/attn_1/norm/InstanceNormalization_output_0: 3d1e727c
/Concat_11_output_0: 3fd5255e
/block.1/norm1_7/Reshape_output_0: 3fd5255e
/attn_1/norm/Reshape_1_output_0: 3d1e727c
onnx::Mul_1822_output: 3b66f55a
ONNXTRT_Broadcast_604_output: 3b66f55a
/attn_1/norm/Mul_output_0: 3c7a80e6
onnx::Add_1823_output: 3a553aae
ONNXTRT_Broadcast_606_output: 3a553aae
/attn_1/norm/Add_output_0: 3c853087
/attn_1/q/Conv_output_0: 3d04aca1
/attn_1/k/Conv_output_0: 3d05911b
/attn_1/v/Conv_output_0: 3cd810b0
/block.1/norm1_7/InstanceNormalization_output_0: 3d76a794
/Mul_2_output_0: 3c389688
onnx::Mul_1877_output: 3c46b6fd
/block.0_6/Unsqueeze_1_output_0: 3edc9884
ONNXTRT_Broadcast_1172_output: 3c46b6fd
/block.0_6/Add_output_0: 3f277fa2
/attn.1_1/Reshape_output_0: 3d7baa6e
/attn.1/norm_1/Reshape_output_0: 3f203ca4
/block.1/norm1_7/Reshape_1_output_0: 3d76a794
onnx::Add_1871_output: 3b8f3652
/block.1/norm1_7/Mul_output_0: 3d238e3d
ONNXTRT_Broadcast_1176_output: 3aeff97d
onnx::Add_1878_output: 3c109599
/block.1_7/Mul_output_0: 3cb11881
/block.2_2/Mul_1_output_0: 3cb17425
ONNXTRT_Broadcast_840_output: 3b58d5b4
ONNXTRT_Broadcast_1174_output: 3c109599
/block.1/conv1_7/Conv_output_0: 3e51ff9c
/attn.1/q_1/Conv_output_0: 3d7baa6e
onnx::Mul_1864_output: 3b9b55e6
/block.1/norm1_7/Add_output_0: 3d2833e0
/attn.1_1/Constant_4_output_0_output: 3a010a14
/block.1/conv2_5/Conv_output_0: 3e5dafe7
/block.1_7/Unsqueeze_output_0: 3e850c28
/attn_1/Reshape_output_0: 3d04aca1
/attn_1/Transpose_output_0: 3d04aca1
/attn_1/Reshape_1_output_0: 3d05911b
/attn_1/MatMul_output_0: 3f4c62e6
/attn_1/Constant_4_output_0_output: 3a010a14
ONNXTRT_Broadcast_619_output: 3a010a14
/attn_1/Mul_1_output_0: 3d4c62e6
/attn_1/Softmax_output: 3bc4a37f
/attn_1/Softmax_output_0: 3bc4a37f
/block.0_6/Add_1_output_0: 3f0fba56
/attn_1/Reshape_2_output_0: 3cd810b0
/attn_1/Transpose_1_output_0: 3bc4a37f
/attn_1/MatMul_1_output_0: 3c92b2c8
/block.1_7/Sigmoid_output_0: 3c038a45
up.0.block.1.temb_proj.weight_output: 3bbd699f
/block.1/temb_proj_7/Gemm_output: 3e857e8e
/block.1/temb_proj_7/Gemm_output_0: 3e850c28
ONNXTRT_Broadcast_1252_output: 3d04ebcf
/attn_1/Reshape_3_output_0: 3c92b2c8
/attn_1/proj_out/Conv_output_0: 3db8630e
/attn_1/Add_output_0: 3f06f291
/block_2/norm1/Reshape_output_0: 3f06f291
/block_2/norm1/InstanceNormalization_output_0: 3d0dbe88
/attn.2/q/Conv_output_0: 3d5bba62
/block_2/norm1/Reshape_1_output_0: 3d0dbe88
onnx::Mul_1824_output: 3c317775
ONNXTRT_Broadcast_636_output: 3c317775
/block_2/norm1/Mul_output_0: 3d3066df
onnx::Add_1825_output: 3bd6c62f
ONNXTRT_Broadcast_638_output: 3bd6c62f
/block_2/norm1/Add_output_0: 3d363747
/block_2/Sigmoid_output_0: 3c109a5a
/block_2/Mul_output_0: 3cc10ae4
/block_2/conv1/Conv_output_0: 3e654bdc
mid.block_2.temb_proj.weight_output: 3b61b0fe
/block_2/temb_proj/Gemm_output: 3dbf475b
ONNXTRT_Broadcast_640_output: 3b0c3014
/block_2/temb_proj/Gemm_output_0: 3dc74d25
/attn.0/norm_1/InstanceNormalization_output_0: 3d36f092
/attn.0_1/MatMul_1_output_0: 3d39b0be
/block.0/conv1_6/Conv_output_0: 3f1cf69e
/block_2/Unsqueeze_output_0: 3dc74d25
/block.2/norm2_2/Reshape_output_0: 3f365ba9
/attn.2/MatMul_output_0: 3f7bb8eb
/block.2_1/Sigmoid_1_output_0: 3bfc7c25
/block.2_3/Mul_1_output_0: 3d296ba6
/block_2/Unsqueeze_1_output_0: 3dc74d25
/block_2/Add_output_0: 3e93a825
/block_2/norm2/Reshape_output_0: 3e93a825
/block_2/norm2/InstanceNormalization_output_0: 3d22ae75
/Concat_10_output_0: 3fcd65a7
/block.1_6/Add_output_0: 3f819146
/block_2/norm2/Reshape_1_output_0: 3d22ae75
onnx::Mul_1826_output: 3c9609b0
ONNXTRT_Broadcast_666_output: 3c9609b0
/block_2/norm2/Mul_output_0: 3d791eea
onnx::Add_1827_output: 3c17a43a
ONNXTRT_Broadcast_668_output: 3c17a43a
/block_2/norm2/Add_output_0: 3db387d8
/block_2/Sigmoid_1_output_0: 3c01b816
/block_2/Mul_1_output_0: 3ce690cc
/block_2/conv2/Conv_output_0: 3e3eafcb
/block_2/Add_1_output_0: 3ee8c2f8
/Concat_1_output_0: 3ef4326c
/block.0/norm1_4/Reshape_output_0: 3ef4326c
/block.0/norm1_4/InstanceNormalization_output_0: 3d1d66d7
/block.0/conv1_7/Conv_output_0: 3e9eeea6
ONNXTRT_Broadcast_876_output: 3c5eda69
/block.0/norm1_4/Reshape_1_output_0: 3d1d66d7
onnx::Mul_1828_output: 3c500bf2
ONNXTRT_Broadcast_676_output: 3c500bf2
/block.0/norm1_4/Mul_output_0: 3d39c3e4
onnx::Add_1829_output: 3bfbc1fa
ONNXTRT_Broadcast_678_output: 3bfbc1fa
/block.0/norm1_4/Add_output_0: 3d405567
/block.0_4/Sigmoid_output_0: 3c008424
/block.0_4/Mul_output_0: 3ca5da8f
/block.0/conv1_4/Conv_output_0: 3ed8d855
up.3.block.0.temb_proj.weight_output: 3b5318a4
/block.0/temb_proj_4/Gemm_output: 3dbd5cd5
ONNXTRT_Broadcast_680_output: 3ab0d687
/block.0/temb_proj_4/Gemm_output_0: 3db477c4
/Concat_5_output_0: 3edd9171
/block.2_3/Sigmoid_output_0: 3bffbf2b
/block.0_5/Mul_1_output_0: 3cc11a28
/block.0_5/Add_output_0: 3f248310
/block.0/norm2_5/Add_output_0: 3dbb5bc1
/block.0_4/Unsqueeze_output_0: 3db477c4
/block.2/temb_proj_3/Gemm_output: 3e8560ec
ONNXTRT_Broadcast_1064_output: 3b7a7421
onnx::Add_1844_output: 3c6fcbd8
/block.0/norm2_5/InstanceNormalization_output_0: 3d4b1a04
ONNXTRT_Broadcast_918_output: 3c8cc653
/block.0_4/Unsqueeze_1_output_0: 3db477c4
/block.0_4/Add_output_0: 3ec2afad
/block.0/norm2_4/Reshape_output_0: 3ec2afad
/block.0/norm2_4/InstanceNormalization_output_0: 3d176e9f
/block.1_7/Unsqueeze_1_output_0: 3e850c28
/block.1_7/Add_output_0: 3ea74a86
/block.0/norm2_4/Reshape_1_output_0: 3d176e9f
onnx::Mul_1830_output: 3ca41246
ONNXTRT_Broadcast_706_output: 3ca41246
/block.0/norm2_4/Mul_output_0: 3da9f10c
onnx::Add_1831_output: 3c2ca880
ONNXTRT_Broadcast_708_output: 3c2ca880
/block.0/norm2_4/Add_output_0: 3d9dc91b
/block.0_4/Sigmoid_1_output_0: 3c037e1d
/block.0_4/Mul_1_output_0: 3d25d0f5
/block.0/conv2_4/Conv_output_0: 3edb2942
/block.0/nin_shortcut_1/Conv_output_0: 3ed3ac19
/block.0_4/Add_1_output_0: 3f3c973c
/Concat_2_output_0: 3f7290ea
/block.1/norm1_4/Reshape_output_0: 3f7290ea
/block.1/norm1_4/InstanceNormalization_output_0: 3d322a1c
/block.1/norm2_7/Reshape_output_0: 3ea74a86
/block.1/norm1_4/Reshape_1_output_0: 3d322a1c
onnx::Mul_1832_output: 3c29e34d
ONNXTRT_Broadcast_716_output: 3c29e34d
/block.1/norm1_4/Mul_output_0: 3d5b8d38
onnx::Add_1833_output: 3c27070c
ONNXTRT_Broadcast_718_output: 3c27070c
/block.1/norm1_4/Add_output_0: 3d66b106
/block.1_4/Sigmoid_output_0: 3c07230e
/block.1_4/Mul_output_0: 3c99e8a3
/block.1/conv1_4/Conv_output_0: 3e9c5805
up.3.block.1.temb_proj.weight_output: 3b6c8829
/block.1/temb_proj_4/Gemm_output: 3dd585e9
ONNXTRT_Broadcast_720_output: 3b13ae5f
/block.1/temb_proj_4/Gemm_output_0: 3dd5284a
ONNXTRT_Broadcast_868_output: 3c477af5
/block.0_6/Sigmoid_output_0: 3c035588
/block.1_4/Unsqueeze_output_0: 3dd5284a
/block.2/nin_shortcut_1/Conv_output_0: 3df38c09
/block.2_1/Add_output_0: 3f9c3fbe
/Concat_4_output_0: 3f55c9d9
/block.2_1/Sigmoid_output_0: 3c0196a7
ONNXTRT_Broadcast_990_output: 3c3e32ea
/block.1/nin_shortcut_1/Conv_output_0: 3e21a507
/block.1_4/Unsqueeze_1_output_0: 3dd5284a
/block.1_4/Add_output_0: 3ec04eca
/block.1/norm2_4/Reshape_output_0: 3ec04eca
/block.1/norm2_4/InstanceNormalization_output_0: 3d0fe894
/block.1/norm2_4/Reshape_1_output_0: 3d0fe894
onnx::Mul_1834_output: 3c9fa8d8
ONNXTRT_Broadcast_746_output: 3c9fa8d8
/block.1/norm2_4/Mul_output_0: 3d9a2b45
onnx::Add_1835_output: 3c536416
ONNXTRT_Broadcast_748_output: 3c536416
/block.1/norm2_4/Add_output_0: 3da24330
/block.1_4/Sigmoid_1_output_0: 3c061489
/block.1_4/Mul_1_output_0: 3d2685a4
/block.1/conv2_4/Conv_output_0: 3eec01ff
/block.1/nin_shortcut/Conv_output_0: 3ed0b57a
/block.1_4/Add_1_output_0: 3f23675d
/Concat_3_output_0: 3f1ac742
/block.2/norm1/Reshape_output_0: 3f1ac742
/block.2/norm1/InstanceNormalization_output_0: 3d376085
/block.1/norm2_7/InstanceNormalization_output_0: 3d2c5dc4
/block.2/norm1/Reshape_1_output_0: 3d376085
onnx::Mul_1836_output: 3c300013
ONNXTRT_Broadcast_756_output: 3c300013
/block.2/norm1/Mul_output_0: 3d4e73ed
onnx::Add_1837_output: 3c14004b
ONNXTRT_Broadcast_758_output: 3c14004b
/block.2/norm1/Add_output_0: 3d413742
/block.2/Sigmoid_output_0: 3c1026ca
/block.2/Mul_output_0: 3cd327b6
/block.2/conv1/Conv_output_0: 3e9a0b31
up.3.block.2.temb_proj.weight_output: 3b9efbf7
/block.2/temb_proj/Gemm_output: 3e002ed8
ONNXTRT_Broadcast_760_output: 3b3de3f9
/block.2/temb_proj/Gemm_output_0: 3e06d608
/attn.0_1/Reshape_2_output_0: 3d846f49
/block.1/norm2_6/InstanceNormalization_output_0: 3d1ba369
ONNXTRT_Broadcast_866_output: 3ca1ae87
/block.0/norm1_6/Reshape_1_output_0: 3d775046
/block.0/norm1_6/Add_output_0: 3d930885
/block.2/Unsqueeze_output_0: 3e06d608
/attn.0_1/Transpose_output_0: 3d504f41
onnx::Mul_1841_output: 3c2a7bec
onnx::Add_1863_output: 3c2b0333
/block.2/norm1_1/Add_output_0: 3d885de1
/block.0/norm2_7/Mul_output_0: 3da29092
/block.2/Unsqueeze_1_output_0: 3e06d608
/block.2/Add_output_0: 3ebd7f86
/block.2/norm2/Reshape_output_0: 3ebd7f86
/block.2/norm2/InstanceNormalization_output_0: 3d0725c6
ONNXTRT_Broadcast_908_output: 3c0a9422
/block.0/norm2_7/Reshape_output_0: 3ec9dec8
/block.2/norm2/Reshape_1_output_0: 3d0725c6
onnx::Mul_1838_output: 3c8deb7d
ONNXTRT_Broadcast_786_output: 3c8deb7d
/block.2/norm2/Mul_output_0: 3d8fd29d
onnx::Add_1839_output: 3c2cb258
ONNXTRT_Broadcast_788_output: 3c2cb258
/block.2/norm2/Add_output_0: 3da5dba7
/block.2/Sigmoid_1_output_0: 3c03f2d6
/block.2/Mul_1_output_0: 3d0110ad
/block.2/conv2/Conv_output_0: 3e64ff41
/block.2/nin_shortcut/Conv_output_0: 3e966fa2
/block.2/Add_1_output_0: 3ed3f5d5
